<pad>	0
<unk>	0
<cls>	0
<sep>	0
<msk>	0
▁the	-3.09805
.	-3.27227
,	-3.31396
▁a	-3.75728
s	-3.771
▁and	-3.82169
▁of	-3.92151
▁to	-3.98707
'	-4.07828
▁is	-4.25337
▁it	-4.33095
▁in	-4.3467
▁i	-4.40432
▁this	-4.57881
▁that	-4.61945
t	-5.01564
▁was	-5.02467
-	-5.06403
▁movie	-5.09523
▁for	-5.11063
▁with	-5.12407
▁as	-5.1595
▁but	-5.1818
▁film	-5.18297
▁you	-5.36768
▁on	-5.36818
▁"	-5.41565
▁(	-5.45673
▁not	-5.49551
▁he	-5.49802
▁are	-5.52437
▁his	-5.53766
▁be	-5.55504
▁have	-5.57561
▁one	-5.58879
"	-5.70126
▁all	-5.74112
▁by	-5.7928
▁at	-5.79345
▁they	-5.80188
▁an	-5.80221
▁so	-5.85136
▁who	-5.87431
▁from	-5.89414
▁like	-5.90407
)	-5.92173
▁there	-5.99353
▁her	-6.02123
▁just	-6.03812
▁or	-6.04938
▁out	-6.05278
▁about	-6.05892
▁has	-6.08131
▁if	-6.09405
▁what	-6.13866
ing	-6.1448
▁some	-6.15377
▁can	-6.19389
▁good	-6.19872
!	-6.24231
▁more	-6.25357
▁when	-6.26624
▁very	-6.27412
▁she	-6.27514
ed	-6.30492
d	-6.32344
▁no	-6.34458
▁up	-6.34902
▁time	-6.35983
▁my	-6.38389
▁would	-6.38415
▁even	-6.39111
?	-6.39465
▁see	-6.44112
▁me	-6.44171
▁story	-6.45236
▁really	-6.45295
▁only	-6.45609
▁their	-6.46299
▁had	-6.48624
▁we	-6.49815
▁which	-6.51009
▁were	-6.53343
▁well	-6.54991
▁-	-6.60631
▁do	-6.60874
ly	-6.62045
▁than	-6.6294
▁much	-6.63066
▁get	-6.6571
▁other	-6.66211
m	-6.66627
▁will	-6.67676
▁been	-6.67931
▁people	-6.68162
▁bad	-6.68513
...	-6.69023
▁great	-6.69366
:	-6.69613
▁into	-6.70332
▁also	-6.71286
▁don	-6.71467
▁him	-6.71558
▁first	-6.72482
▁because	-6.72505
▁how	-6.73146
▁most	-6.73871
▁make	-6.8032
▁way	-6.81792
▁made	-6.82459
▁then	-6.84212
▁could	-6.84389
▁them	-6.8615
the	-6.86931
▁too	-6.87403
▁any	-6.87946
▁after	-6.89009
▁character	-6.89487
▁think	-6.90476
▁	-6.90628
y	-6.91127
i	-6.92299
▁'	-6.93553
▁characters	-6.94198
re	-6.94518
▁watch	-6.94651
▁over	-6.96856
▁two	-6.99216
a	-6.99228
▁many	-6.99373
▁seen	-6.99667
▁love	-6.9973
er	-7.00741
▁being	-7.0084
▁plot	-7.0091
▁show	-7.01232
▁movies	-7.01664
▁never	-7.02909
▁know	-7.03457
ve	-7.03527
▁acting	-7.04792
▁best	-7.05869
▁did	-7.06052
▁where	-7.06098
▁life	-7.06163
▁man	-7.06265
;	-7.06483
▁little	-7.07748
e	-7.08677
▁ever	-7.09733
▁films	-7.11246
▁off	-7.12931
▁its	-7.13675
▁does	-7.13713
).	-7.14585
▁your	-7.15127
▁end	-7.15148
▁better	-7.15571
▁scene	-7.17419
▁say	-7.17876
▁go	-7.18533
▁here	-7.18692
▁still	-7.20357
▁these	-7.22613
▁back	-7.25729
▁while	-7.26029
▁scenes	-7.26929
▁why	-7.27728
▁something	-7.29536
▁such	-7.30223
▁should	-7.30885
▁through	-7.31758
),	-7.33165
▁thing	-7.34964
▁those	-7.35451
▁real	-7.35848
▁watching	-7.37971
▁now	-7.38821
in	-7.40171
▁doesn	-7.40264
▁didn	-7.41147
/	-7.41624
▁actors	-7.42413
▁work	-7.42606
▁years	-7.43269
▁funny	-7.43549
▁new	-7.451
▁director	-7.45282
▁another	-7.45364
▁find	-7.4572
▁look	-7.46003
▁before	-7.46105
▁lot	-7.4639
▁actually	-7.46418
▁though	-7.47071
▁nothing	-7.4741
ll	-7.47453
▁old	-7.48617
▁part	-7.49116
▁going	-7.49381
▁same	-7.49695
▁few	-7.50603
▁every	-7.50943
▁makes	-7.51752
▁cast	-7.53497
▁again	-7.53956
▁world	-7.54738
and	-7.55745
▁us	-7.56803
▁want	-7.57036
▁down	-7.57791
r	-7.59332
▁quite	-7.61153
▁pretty	-7.61414
▁take	-7.61616
▁horror	-7.61697
▁&	-7.6274
▁things	-7.62879
▁around	-7.62929
▁fact	-7.62948
▁young	-7.63555
▁thought	-7.63832
▁got	-7.64358
▁seems	-7.64567
▁long	-7.64869
▁big	-7.65338
▁enough	-7.66045
▁may	-7.66375
▁however	-7.66389
▁give	-7.66668
▁own	-7.67047
▁right	-7.67301
▁both	-7.69432
▁must	-7.69933
or	-7.70852
▁between	-7.70993
o	-7.71341
▁come	-7.71999
▁point	-7.72452
▁role	-7.72658
▁far	-7.72802
▁music	-7.72847
▁action	-7.72934
▁guy	-7.72981
▁saw	-7.73486
▁original	-7.73916
▁without	-7.74514
▁series	-7.74602
▁comedy	-7.74879
▁always	-7.74899
▁bit	-7.75282
▁isn	-7.7579
▁script	-7.75964
▁almost	-7.77271
▁whole	-7.77318
▁interesting	-7.77376
▁least	-7.77727
▁done	-7.79934
▁feel	-7.80737
n	-7.80867
▁am	-7.8136
▁minutes	-7.82351
▁might	-7.82898
▁gets	-7.83036
▁times	-7.83263
▁kind	-7.83359
▁last	-7.83461
▁family	-7.83794
▁anything	-7.84215
▁performance	-7.84736
▁since	-7.85112
es	-7.86249
▁fun	-7.87299
▁girl	-7.87577
▁tv	-7.88586
▁probably	-7.88703
▁away	-7.89131
▁yet	-7.89883
al	-7.903
▁anyone	-7.90727
▁woman	-7.91075
▁re	-7.91385
▁hard	-7.91738
▁sure	-7.92189
▁worst	-7.92581
▁rather	-7.92923
▁found	-7.92945
man	-7.9383
▁each	-7.93981
▁day	-7.9408
it	-7.94245
▁believe	-7.95761
▁dvd	-7.97295
--	-7.97426
c	-7.97647
▁making	-7.9773
▁our	-7.97891
▁book	-7.98076
▁screen	-7.98247
▁put	-7.9919
▁course	-7.99386
▁having	-8.00268
▁trying	-8.003
▁set	-8.00389
▁ending	-8.00482
▁un	-8.01267
▁place	-8.01881
▁sense	-8.0263
▁main	-8.02771
▁play	-8.0301
▁goes	-8.03106
▁reason	-8.03227
▁everything	-8.03271
▁worth	-8.0444
▁war	-8.04506
▁actor	-8.04704
▁three	-8.04998
▁played	-8.05172
▁different	-8.05361
▁let	-8.05646
▁someone	-8.05938
▁comes	-8.06161
▁job	-8.06434
▁looking	-8.07003
▁money	-8.07747
on	-8.07819
▁once	-8.0831
▁true	-8.0876
▁wasn	-8.08924
▁maybe	-8.09042
▁watched	-8.09133
▁although	-8.09209
▁everyone	-8.09532
▁effects	-8.09591
▁especially	-8.09907
▁black	-8.10059
▁together	-8.10212
▁audience	-8.1043
▁shows	-8.10504
▁high	-8.11421
▁fan	-8.11885
▁seem	-8.12145
▁said	-8.12693
▁looks	-8.13039
▁during	-8.13345
▁special	-8.13595
▁instead	-8.13611
▁left	-8.14381
▁half	-8.1441
▁plays	-8.14463
▁later	-8.14557
▁night	-8.14588
▁american	-8.15116
".	-8.15153
▁version	-8.15288
▁idea	-8.15544
",	-8.15642
▁himself	-8.15742
▁beautiful	-8.16207
▁b	-8.16314
▁short	-8.16492
▁mind	-8.17213
(	-8.17451
▁shot	-8.17843
▁seeing	-8.17948
▁excellent	-8.18278
▁takes	-8.18449
▁year	-8.18469
▁john	-8.19021
▁home	-8.19066
▁2	-8.19539
▁house	-8.19793
▁else	-8.19971
▁death	-8.20232
▁father	-8.20503
▁wife	-8.20629
▁star	-8.21427
g	-8.22331
▁read	-8.22918
▁men	-8.23347
▁poor	-8.23679
▁nice	-8.23789
▁simply	-8.2403
▁second	-8.24143
k	-8.24515
▁help	-8.24596
▁enjoy	-8.24632
▁10	-8.24829
▁completely	-8.24938
th	-8.25138
▁need	-8.25314
▁used	-8.25905
l	-8.26561
▁rest	-8.26683
▁wrong	-8.27314
▁line	-8.27833
ness	-8.28272
▁school	-8.28403
▁low	-8.28469
▁camera	-8.28523
▁along	-8.28855
▁less	-8.29221
▁couple	-8.29315
▁use	-8.29692
▁either	-8.29767
▁de	-8.29871
▁try	-8.29979
▁boring	-8.30074
▁classic	-8.30625
▁hollywood	-8.30683
▁stupid	-8.30797
b	-8.31013
▁sex	-8.31166
▁dead	-8.31258
▁tell	-8.31302
▁kids	-8.31928
▁production	-8.31962
▁given	-8.32242
▁car	-8.32552
▁full	-8.32553
▁under	-8.32648
▁women	-8.32792
▁start	-8.32819
▁--	-8.33051
▁recommend	-8.33436
▁mean	-8.33558
▁friends	-8.33741
▁person	-8.33747
▁next	-8.34714
▁top	-8.34804
▁truly	-8.34891
▁understand	-8.35002
▁until	-8.35035
to	-8.35758
▁human	-8.35805
▁head	-8.36096
▁came	-8.36662
▁video	-8.37093
▁remember	-8.37294
▁performances	-8.37328
▁keep	-8.37565
as	-8.37692
ers	-8.378
▁face	-8.38389
▁budget	-8.38395
▁won	-8.38582
▁name	-8.3884
▁mother	-8.3895
▁terrible	-8.39127
▁awful	-8.39248
▁getting	-8.40226
▁boy	-8.40392
le	-8.41208
▁episode	-8.4145
p	-8.41691
▁itself	-8.4172
▁moments	-8.42037
▁small	-8.42262
▁wonderful	-8.42266
▁perhaps	-8.4429
▁live	-8.44379
▁dialogue	-8.44522
▁cinema	-8.44602
an	-8.45414
▁piece	-8.45509
▁perfect	-8.45589
▁playing	-8.45769
▁definitely	-8.45904
▁laugh	-8.46066
▁often	-8.463
en	-8.4642
▁case	-8.46511
▁doing	-8.46797
▁3	-8.47007
▁sort	-8.47029
▁went	-8.47101
▁early	-8.47153
▁children	-8.47203
▁title	-8.47516
▁couldn	-8.47745
▁picture	-8.4818
▁become	-8.48572
▁friend	-8.48584
."	-8.48662
▁absolutely	-8.49317
▁hope	-8.49519
▁o	-8.49731
▁lines	-8.49831
▁style	-8.50012
▁finally	-8.50079
▁worse	-8.504
▁waste	-8.50454
▁certainly	-8.50881
▁entertaining	-8.51008
▁dark	-8.51324
▁sound	-8.51798
▁gives	-8.51819
▁game	-8.52474
▁stars	-8.52675
▁direction	-8.53158
▁felt	-8.53187
▁entire	-8.53462
▁loved	-8.53483
▁liked	-8.5356
▁problem	-8.53754
▁supposed	-8.54156
▁overall	-8.54202
▁several	-8.54236
▁care	-8.54263
▁beginning	-8.54945
▁written	-8.55064
▁lead	-8.55165
▁drama	-8.55692
up	-8.55944
▁lost	-8.56274
▁turn	-8.5688
▁against	-8.56957
▁humor	-8.57311
▁side	-8.57405
▁others	-8.57609
▁s	-8.57692
▁heart	-8.58003
▁mr	-8.58048
▁white	-8.58394
▁example	-8.58401
▁totally	-8.5844
ic	-8.58604
▁seemed	-8.59549
▁wanted	-8.59722
▁based	-8.59852
▁guys	-8.59967
▁fine	-8.60114
▁guess	-8.60169
▁son	-8.60278
▁throughout	-8.60645
▁already	-8.60825
▁final	-8.60958
▁close	-8.61503
▁fans	-8.61868
▁lives	-8.62039
▁past	-8.62322
▁evil	-8.62349
▁flick	-8.62497
h	-8.62519
w	-8.62616
▁yes	-8.62691
▁killer	-8.63416
▁despite	-8.63654
▁called	-8.63693
▁run	-8.6384
▁able	-8.63867
▁becomes	-8.64009
▁god	-8.64037
▁history	-8.64366
▁today	-8.6444
ie	-8.64758
f	-8.64791
▁unfortunately	-8.64802
▁art	-8.64988
▁town	-8.65217
▁act	-8.65486
but	-8.65772
▁kill	-8.65922
el	-8.65964
▁quality	-8.65964
▁writing	-8.65965
▁hand	-8.65983
▁matter	-8.66347
▁expect	-8.66507
able	-8.66664
▁	-8.66836
▁oh	-8.66964
▁horrible	-8.66996
▁amazing	-8.67104
▁kid	-8.67566
▁child	-8.6783
▁viewer	-8.6787
▁co	-8.67944
▁stuff	-8.68308
▁days	-8.69119
▁favorite	-8.69638
▁tries	-8.70132
▁blood	-8.70224
▁1	-8.70477
▁enjoyed	-8.70867
▁gave	-8.70927
▁michael	-8.71257
▁genre	-8.71589
▁late	-8.71623
▁brilliant	-8.71955
is	-8.71966
u	-8.7221
▁behind	-8.72256
▁etc	-8.72365
▁group	-8.72988
▁eyes	-8.7301
▁wants	-8.73179
▁turns	-8.73346
▁themselves	-8.7417
▁!	-8.74505
▁city	-8.74665
▁soon	-8.74752
▁slow	-8.7477
▁works	-8.75598
▁myself	-8.75701
▁voice	-8.75743
fi	-8.75895
he	-8.76011
▁killed	-8.76061
▁sad	-8.76133
▁decent	-8.76307
▁self	-8.76341
▁actress	-8.76883
▁daughter	-8.7697
▁obviously	-8.77083
▁directed	-8.77163
▁anyway	-8.776
▁sometimes	-8.77915
▁experience	-8.78008
▁highly	-8.78062
▁thinking	-8.78255
▁moment	-8.78355
z	-8.78542
▁feeling	-8.78558
ch	-8.78663
▁took	-8.79079
▁girls	-8.79173
▁starts	-8.79305
▁hit	-8.79476
▁parts	-8.79506
▁fight	-8.79529
▁simple	-8.7965
▁hour	-8.79668
▁heard	-8.79832
▁chance	-8.80148
▁lack	-8.802
▁d	-8.80599
▁happens	-8.80698
▁t	-8.80716
▁score	-8.80721
▁leave	-8.80775
▁wonder	-8.80902
▁c	-8.81036
▁type	-8.81089
▁crap	-8.81289
▁cool	-8.81305
la	-8.81589
▁p	-8.81776
no	-8.81792
▁happen	-8.81837
▁cut	-8.8202
▁hell	-8.82153
▁stop	-8.82517
de	-8.82976
▁strong	-8.83309
▁song	-8.8334
!!	-8.83505
▁coming	-8.83625
▁stories	-8.83685
▁interest	-8.83815
▁extremely	-8.83918
▁told	-8.8396
▁involved	-8.84461
▁5	-8.8447
▁cannot	-8.84688
▁attempt	-8.84695
▁violence	-8.84778
ion	-8.84882
▁police	-8.85073
▁call	-8.85206
▁wouldn	-8.85234
▁save	-8.85275
▁living	-8.85466
▁light	-8.85477
▁brother	-8.85542
▁husband	-8.85547
▁hilarious	-8.86042
▁ten	-8.86314
▁murder	-8.86492
▁writer	-8.8683
▁looked	-8.86857
▁happened	-8.87043
▁obvious	-8.87163
▁complete	-8.87219
ra	-8.87448
▁huge	-8.87549
▁power	-8.87731
▁please	-8.87766
▁local	-8.87934
▁taken	-8.88321
▁english	-8.88481
▁ok	-8.88492
▁cheap	-8.88594
▁order	-8.88624
▁ago	-8.88631
▁shown	-8.88636
▁says	-8.89344
▁age	-8.89402
▁gore	-8.89513
v	-8.8955
▁number	-8.89575
▁career	-8.89713
▁4	-8.89834
▁david	-8.90086
▁female	-8.90383
▁across	-8.90622
▁annoying	-8.90699
▁serious	-8.90735
▁wish	-8.91021
▁e	-8.91332
▁relationship	-8.91588
▁opening	-8.9171
▁team	-8.91732
▁word	-8.91751
▁la	-8.91765
▁exactly	-8.91782
▁known	-8.9193
▁seriously	-8.91943
▁roles	-8.9198
▁talent	-8.92009
▁released	-8.92059
▁alone	-8.92278
▁james	-8.92436
▁particularly	-8.92528
like	-8.92545
▁except	-8.92682
▁cinematography	-8.92734
▁view	-8.92834
▁none	-8.92988
▁saying	-8.93075
▁yourself	-8.93261
▁ridiculous	-8.93383
▁opinion	-8.93404
▁reality	-8.93425
who	-8.93563
▁g	-8.93651
▁robert	-8.93764
ation	-8.94073
▁middle	-8.9409
▁dr	-8.94149
at	-8.94242
▁possible	-8.94251
▁change	-8.94262
▁hero	-8.94271
▁novel	-8.94339
▁jack	-8.94429
na	-8.94526
▁body	-8.9468
ist	-8.9469
▁major	-8.95242
▁hours	-8.95305
▁jokes	-8.95432
▁usually	-8.95596
ity	-8.95651
ro	-8.95799
▁rock	-8.95808
▁running	-8.95899
▁single	-8.96124
▁level	-8.96369
▁country	-8.96482
▁rating	-8.96692
▁started	-8.96735
▁among	-8.96758
▁strange	-8.96872
▁documentary	-8.96916
be	-8.97058
▁due	-8.97348
▁room	-8.97445
▁talk	-8.97457
da	-8.97458
▁usual	-8.97654
less	-8.97779
so	-8.97782
▁important	-8.98143
▁non	-8.98168
▁knew	-8.9849
▁taking	-8.98554
▁attention	-8.98763
▁four	-8.98858
▁disappointed	-8.98898
▁silly	-8.98935
▁musical	-8.99068
▁whose	-8.99102
▁space	-8.99406
▁somewhat	-8.99445
x	-8.9959
son	-8.99782
▁add	-9.00023
▁beyond	-9.00039
▁eye	-9.00126
▁die	-9.00251
▁earth	-9.00328
▁shots	-9.00353
out	-9.00395
▁20	-9.00554
▁turned	-9.00767
▁near	-9.01021
co	-9.01024
which	-9.01055
▁television	-9.01157
▁modern	-9.01278
▁basically	-9.0133
▁words	-9.01567
▁doubt	-9.01586
ri	-9.0199
▁*	-9.02113
▁sequence	-9.02355
▁miss	-9.02422
▁clear	-9.02501
▁upon	-9.02569
▁scary	-9.02712
▁talking	-9.02802
▁f	-9.03554
▁apparently	-9.03598
▁clearly	-9.03626
▁subject	-9.03655
▁review	-9.03906
▁king	-9.04105
▁french	-9.0419
3	-9.04537
▁romantic	-9.04658
ur	-9.04768
▁happy	-9.0507
▁dull	-9.05259
▁mostly	-9.05346
▁including	-9.05377
▁british	-9.05416
▁fast	-9.0551
▁dialog	-9.0551
▁problems	-9.05575
▁events	-9.05738
*	-9.06133
▁straight	-9.06242
▁comic	-9.06333
▁soundtrack	-9.06359
▁aren	-9.06409
▁hate	-9.07125
▁future	-9.07312
▁episodes	-9.07324
ling	-9.07379
▁mention	-9.07448
▁bring	-9.07486
do	-9.07535
▁predictable	-9.07615
▁dog	-9.0762
▁buy	-9.07778
▁entertainment	-9.07977
▁fall	-9.08436
▁george	-9.08707
▁stand	-9.08838
▁class	-9.08928
▁easily	-9.09003
▁above	-9.09004
▁enjoyable	-9.09043
▁...	-9.09093
one	-9.09266
▁effort	-9.09308
▁whether	-9.09372
us	-9.09475
▁sequel	-9.09494
▁red	-9.09731
▁haven	-9.09745
▁material	-9.09859
▁certain	-9.10286
▁songs	-9.10694
▁message	-9.10709
▁giving	-9.10724
▁similar	-9.10763
▁appears	-9.10814
▁ends	-9.10839
▁bunch	-9.10851
▁five	-9.10901
▁supporting	-9.1096
▁avoid	-9.11142
ish	-9.11275
▁theater	-9.11589
▁tells	-9.11649
▁sister	-9.11652
▁moving	-9.11732
ton	-9.12073
▁finds	-9.1214
▁release	-9.12195
▁surprised	-9.12318
this	-9.12389
▁storyline	-9.12524
▁tried	-9.12824
▁peter	-9.13111
▁thriller	-9.13162
!"	-9.13278
▁showing	-9.13347
▁deal	-9.13503
ul	-9.13537
for	-9.13566
▁falls	-9.13649
▁feature	-9.13656
▁period	-9.13746
▁easy	-9.13812
▁stay	-9.13994
ha	-9.14069
▁hear	-9.1439
if	-9.14422
▁follow	-9.14533
▁parents	-9.1455
▁monster	-9.14839
il	-9.14845
▁suspense	-9.1488
▁general	-9.1542
▁free	-9.15497
▁forget	-9.15586
▁check	-9.15629
lo	-9.15721
▁actual	-9.15745
ne	-9.15816
▁dream	-9.15826
▁fantastic	-9.15867
▁tale	-9.1591
▁working	-9.15971
▁within	-9.15991
▁theme	-9.16028
▁sets	-9.16057
not	-9.16181
ine	-9.16214
▁knows	-9.16216
▁air	-9.16251
▁lady	-9.16422
▁viewing	-9.16647
▁sit	-9.16675
▁form	-9.16745
▁oscar	-9.16776
▁imagine	-9.16879
mo	-9.17038
▁gun	-9.17088
▁fire	-9.17191
▁richard	-9.17322
▁named	-9.17332
▁needs	-9.17441
▁kept	-9.17586
ies	-9.1764
▁weak	-9.17853
ian	-9.17884
▁learn	-9.17999
▁editing	-9.18078
▁move	-9.18081
▁typical	-9.18193
go	-9.18376
▁animation	-9.18385
▁using	-9.18533
▁comments	-9.1856
▁nearly	-9.1861
ism	-9.18622
▁york	-9.18654
▁wait	-9.18688
▁greatest	-9.18707
▁famous	-9.18858
▁rent	-9.18879
▁elements	-9.19141
▁herself	-9.19155
li	-9.19176
!!!	-9.1922
▁gone	-9.19228
▁decided	-9.19458
▁lame	-9.19471
▁premise	-9.19529
▁pre	-9.19532
▁water	-9.19924
▁crime	-9.19926
▁paul	-9.1997
ive	-9.20213
▁open	-9.20226
un	-9.20431
of	-9.20478
est	-9.20698
▁lee	-9.20819
▁brought	-9.20892
▁u	-9.21009
▁sorry	-9.21039
▁viewers	-9.21056
▁figure	-9.21071
▁realistic	-9.21257
▁believable	-9.21306
▁nor	-9.2193
ter	-9.22087
ia	-9.2228
▁america	-9.22551
▁situation	-9.22655
▁somehow	-9.2285
▁question	-9.22859
▁truth	-9.22894
ma	-9.22956
▁filmed	-9.23073
▁stage	-9.23095
▁third	-9.23116
▁male	-9.23355
▁gay	-9.23368
▁sci	-9.23415
▁begins	-9.23522
▁cop	-9.23537
▁mystery	-9.23542
▁means	-9.23622
▁doctor	-9.23629
▁hot	-9.23772
▁dance	-9.23865
▁atmosphere	-9.23886
▁okay	-9.23897
▁romance	-9.23964
te	-9.24005
▁deep	-9.24049
▁surprise	-9.24142
▁lots	-9.24205
▁particular	-9.2425
▁pay	-9.24398
▁crew	-9.24462
▁box	-9.24582
▁ex	-9.24604
▁masterpiece	-9.24743
▁season	-9.24949
▁begin	-9.24961
▁reviews	-9.24968
▁eventually	-9.25108
▁killing	-9.25145
▁comment	-9.25296
▁imdb	-9.25314
▁spend	-9.25386
▁shame	-9.25483
▁expected	-9.25564
ar	-9.25631
you	-9.25977
▁street	-9.26154
ting	-9.26235
▁rich	-9.26239
▁mad	-9.26638
▁poorly	-9.26834
ce	-9.26865
▁leads	-9.2688
▁feels	-9.26889
▁indeed	-9.27123
▁bar	-9.27241
▁sequences	-9.27328
▁western	-9.27351
▁island	-9.27409
▁dumb	-9.27537
▁society	-9.27856
ty	-9.2798
▁difficult	-9.28112
▁average	-9.28227
▁weird	-9.28249
▁mark	-9.28344
ted	-9.28378
▁points	-9.2867
▁minute	-9.2871
▁footage	-9.28742
▁nature	-9.28818
▁effect	-9.28915
▁con	-9.29003
▁screenplay	-9.29046
ally	-9.29257
▁write	-9.29417
ke	-9.29623
▁emotional	-9.29677
ley	-9.29756
▁k	-9.29782
▁became	-9.30009
▁j	-9.30163
▁admit	-9.30224
▁reading	-9.30329
▁meet	-9.30456
▁forced	-9.30533
▁needed	-9.30599
▁memorable	-9.30687
▁unique	-9.30691
▁post	-9.31106
▁copy	-9.31174
▁whatever	-9.31218
by	-9.31282
▁flat	-9.31299
▁result	-9.31534
▁superb	-9.31579
▁van	-9.31699
▁otherwise	-9.31707
!)	-9.31766
2	-9.31841
▁l	-9.31842
▁mess	-9.32096
▁sexual	-9.32158
▁break	-9.3236
ta	-9.32458
ment	-9.32581
▁business	-9.32795
▁success	-9.32956
▁possibly	-9.32988
▁credits	-9.32995
▁leaves	-9.33172
time	-9.33196
▁bo	-9.33329
▁development	-9.33376
▁train	-9.33385
se	-9.33388
▁interested	-9.33435
▁cheesy	-9.33605
▁previous	-9.33863
?"	-9.33868
▁inside	-9.33882
▁beauty	-9.33996
▁perfectly	-9.34081
▁baby	-9.34087
▁bill	-9.34224
▁forward	-9.34323
▁powerful	-9.34427
me	-9.34494
▁personal	-9.34528
ous	-9.34595
▁quickly	-9.34786
▁background	-9.34819
▁battle	-9.34881
▁front	-9.34906
▁plus	-9.35026
▁girlfriend	-9.3512
▁realize	-9.35141
▁total	-9.35235
▁disney	-9.35258
▁setting	-9.35574
▁features	-9.35619
▁boys	-9.35644
▁plain	-9.35667
▁meets	-9.35903
▁hands	-9.35946
▁appear	-9.36018
▁earlier	-9.3637
▁note	-9.36438
▁agree	-9.36568
▁joke	-9.366
▁incredibly	-9.3661
▁japanese	-9.36614
▁odd	-9.36731
▁towards	-9.36776
▁public	-9.36841
▁cat	-9.36875
	-9.37234
land	-9.37247
▁badly	-9.37331
ry	-9.37348
off	-9.37373
▁present	-9.37505
▁cover	-9.37559
▁super	-9.37788
▁ask	-9.37803
▁remake	-9.37911
▁sub	-9.38048
▁ways	-9.38311
▁worked	-9.38359
▁various	-9.38392
")	-9.38675
▁twist	-9.39079
▁list	-9.39158
▁al	-9.39362
▁match	-9.3959
▁following	-9.39651
1	-9.39669
ent	-9.39692
we	-9.39697
▁unless	-9.39771
▁laughs	-9.39941
▁crazy	-9.39963
▁whom	-9.39963
▁plenty	-9.40127
▁store	-9.40154
id	-9.40439
▁dramatic	-9.40471
▁older	-9.40481
▁creepy	-9.40909
▁villain	-9.41058
▁fear	-9.41107
▁ben	-9.41108
▁directing	-9.41267
▁30	-9.41398
▁acted	-9.4145
▁fairly	-9.4149
▁party	-9.41545
▁cute	-9.41561
▁sounds	-9.41604
▁8	-9.41782
em	-9.41809
▁keeps	-9.41874
▁win	-9.41912
▁7	-9.41935
ized	-9.42028
▁spent	-9.42228
▁era	-9.42611
▁writers	-9.42876
▁brings	-9.42894
▁anti	-9.43093
▁portrayed	-9.43159
▁secret	-9.43172
▁create	-9.43297
▁joe	-9.43317
▁leading	-9.43418
▁italian	-9.43512
▁sweet	-9.436
ant	-9.43687
ge	-9.4375
▁outside	-9.43861
▁pick	-9.44043
▁fails	-9.44072
▁project	-9.44083
▁band	-9.44137
▁deserves	-9.44201
▁pro	-9.44386
▁cartoon	-9.44438
well	-9.44455
▁german	-9.44537
et	-9.44601
▁hair	-9.44698
▁escape	-9.44714
▁wasted	-9.44737
▁brain	-9.44843
▁visual	-9.44846
▁`	-9.4513
▁state	-9.45219
▁gang	-9.45254
▁fit	-9.4526
▁recently	-9.45354
▁political	-9.4538
▁expecting	-9.45447
▁large	-9.45489
▁apart	-9.45847
▁hold	-9.45988
▁pace	-9.46037
▁manages	-9.46294
▁caught	-9.46298
old	-9.46306
line	-9.46333
▁meant	-9.46562
▁trip	-9.46615
▁zombie	-9.46718
▁missing	-9.46722
▁fighting	-9.46808
▁dis	-9.47119
▁pure	-9.47286
▁common	-9.47383
ba	-9.47427
▁tom	-9.47457
that	-9.47585
▁laughing	-9.47682
▁clever	-9.47748
▁william	-9.47842
▁hardly	-9.47993
▁w	-9.47996
▁master	-9.48101
▁sick	-9.48169
▁respect	-9.48172
▁sam	-9.48202
what	-9.4822
▁tension	-9.48264
▁potential	-9.48312
▁speak	-9.48332
▁en	-9.48336
▁telling	-9.48414
▁credit	-9.48436
rs	-9.48465
▁r	-9.48558
▁return	-9.48693
▁language	-9.4872
▁law	-9.48818
▁attempts	-9.48849
am	-9.4885
▁further	-9.49076
▁nudity	-9.49078
?)	-9.49101
▁talented	-9.49216
▁ended	-9.49315
▁members	-9.49353
▁fantasy	-9.49814
▁trouble	-9.49855
▁camp	-9.49866
▁filmmakers	-9.49895
age	-9.49907
▁cold	-9.50179
my	-9.50554
▁depth	-9.50642
▁unlike	-9.50645
▁missed	-9.50656
▁company	-9.5073
▁reasons	-9.50813
▁scott	-9.50817
▁road	-9.50835
▁control	-9.50904
ful	-9.50904
▁9	-9.50929
com	-9.50986
▁created	-9.51016
▁culture	-9.51031
5	-9.51051
▁incredible	-9.51192
▁value	-9.51248
▁ma	-9.51341
▁casting	-9.51706
▁social	-9.51817
▁familiar	-9.51927
▁intelligent	-9.51945
ir	-9.52021
ner	-9.52124
▁former	-9.52141
▁waiting	-9.52152
▁consider	-9.52162
▁married	-9.52225
all	-9.52412
ru	-9.52435
▁appreciate	-9.52605
▁force	-9.52689
mi	-9.52758
▁popular	-9.52773
▁amount	-9.52886
▁died	-9.52996
▁office	-9.5314
▁slightly	-9.53201
▁h	-9.53365
▁concept	-9.53553
▁science	-9.53554
▁fake	-9.53582
▁ideas	-9.53704
movie	-9.53753
j	-9.53801
▁rate	-9.53904
▁portrayal	-9.53977
▁park	-9.5401
▁se	-9.54023
▁considering	-9.5414
▁trash	-9.54217
▁pointless	-9.54517
▁mentioned	-9.54599
4	-9.54696
▁convincing	-9.5475
▁choice	-9.54831
▁ho	-9.55147
▁bored	-9.55153
▁sadly	-9.55178
▁century	-9.55179
▁amusing	-9.55276
▁entirely	-9.55344
▁produced	-9.5537
▁wrote	-9.55373
▁college	-9.55463
▁bother	-9.55489
with	-9.55534
▁bizarre	-9.5556
vi	-9.55686
▁jane	-9.558
▁positive	-9.55914
▁solid	-9.56145
▁decides	-9.56799
▁neither	-9.56928
▁directors	-9.57302
▁compared	-9.5735
ni	-9.57403
▁channel	-9.57535
ring	-9.57605
▁land	-9.57759
▁suddenly	-9.57773
▁drug	-9.57858
▁effective	-9.57897
....	-9.58009
▁impressive	-9.58018
▁biggest	-9.58115
▁walk	-9.58146
▁younger	-9.58255
▁studio	-9.58659
▁6	-9.58843
▁accent	-9.58852
▁decide	-9.58894
▁bond	-9.58912
▁basic	-9.58912
▁purpose	-9.58988
▁awesome	-9.59016
▁15	-9.59021
▁dancing	-9.59025
▁follows	-9.59241
▁fair	-9.59289
▁per	-9.59412
▁conclusion	-9.59519
▁sa	-9.59608
ler	-9.59922
▁cause	-9.59924
▁recommended	-9.59954
▁glad	-9.59961
▁successful	-9.60003
▁exciting	-9.60025
▁stick	-9.60102
▁spirit	-9.60127
▁humour	-9.60127
▁images	-9.60192
tic	-9.6034
▁sea	-9.60356
▁alive	-9.60486
▁violent	-9.60609
▁tough	-9.60644
▁na	-9.60667
▁focus	-9.60822
▁longer	-9.60859
▁pathetic	-9.61035
▁moves	-9.61051
▁appeal	-9.61242
▁filled	-9.61269
▁mood	-9.61274
▁ship	-9.61291
ck	-9.61297
▁ultimately	-9.61418
her	-9.61455
▁recent	-9.6175
ary	-9.61861
per	-9.61884
▁green	-9.61906
▁race	-9.61995
▁shoot	-9.62009
▁christmas	-9.62079
▁door	-9.62102
▁honest	-9.62265
▁situations	-9.62337
▁slasher	-9.62421
▁meaning	-9.62455
▁producers	-9.62458
▁prison	-9.62491
▁adventure	-9.62522
▁impression	-9.6281
▁jim	-9.62875
▁shooting	-9.62912
▁uses	-9.63021
▁edge	-9.6307
▁garbage	-9.63116
▁charm	-9.63122
▁touch	-9.63204
▁brothers	-9.63231
▁south	-9.63331
▁bed	-9.63776
▁west	-9.63962
▁week	-9.6405
▁vampire	-9.64125
led	-9.64157
ci	-9.64234
bo	-9.64248
▁alien	-9.64252
men	-9.64265
▁weren	-9.6431
▁mo	-9.64313
▁chase	-9.64358
▁blue	-9.64398
▁tone	-9.64404
▁changed	-9.64652
▁impossible	-9.64703
▁wood	-9.64707
▁disturbing	-9.64826
▁barely	-9.64956
▁pass	-9.65072
▁ha	-9.65226
▁aside	-9.65295
▁revenge	-9.65344
▁explain	-9.65354
ho	-9.65476
▁manner	-9.65499
even	-9.65637
▁involving	-9.65767
▁pain	-9.65853
▁questions	-9.66025
▁adult	-9.66083
▁frank	-9.66173
um	-9.66272
▁journey	-9.6631
▁singing	-9.66341
▁immediately	-9.66436
▁smart	-9.6655
dy	-9.66667
▁cult	-9.66669
ated	-9.66724
▁ground	-9.66862
▁values	-9.66897
▁failed	-9.66956
don	-9.67088
▁le	-9.67121
making	-9.67171
▁government	-9.67286
▁chemistry	-9.67392
▁leaving	-9.67396
▁showed	-9.67449
▁taste	-9.67588
▁detective	-9.67616
▁soul	-9.67652
▁bought	-9.67723
di	-9.67726
▁silent	-9.67835
▁genius	-9.68015
▁somewhere	-9.68038
▁kills	-9.6814
▁dad	-9.68179
▁club	-9.68212
star	-9.68285
ka	-9.68299
▁fiction	-9.6834
ger	-9.68344
▁st	-9.68357
▁considered	-9.68372
▁excuse	-9.68387
pa	-9.68464
▁loud	-9.68524
▁giant	-9.68607
▁sitting	-9.6862
▁ability	-9.68632
con	-9.68845
▁honestly	-9.69186
▁award	-9.6927
▁notice	-9.69438
▁victim	-9.69685
▁added	-9.6974
▁army	-9.6989
▁planet	-9.7004
▁mary	-9.7005
▁computer	-9.7015
▁soldiers	-9.70493
▁ghost	-9.70522
▁track	-9.70525
▁ed	-9.70583
▁festival	-9.70837
▁hurt	-9.7085
▁charles	-9.71195
she	-9.71272
▁bottom	-9.71296
▁mc	-9.71311
▁cinematic	-9.71447
▁remind	-9.71603
▁innocent	-9.71635
ey	-9.71763
▁appearance	-9.71766
▁nobody	-9.71778
▁plan	-9.7178
▁ba	-9.71811
house	-9.71855
▁starring	-9.71899
▁surprisingly	-9.71951
▁aspect	-9.71989
ster	-9.7217
▁color	-9.72244
▁wild	-9.7239
▁nowhere	-9.72421
▁personally	-9.72434
▁yeah	-9.72452
▁terrific	-9.72548
▁london	-9.72548
▁standard	-9.72596
▁ta	-9.72839
▁disappointing	-9.72839
▁catch	-9.72843
▁complex	-9.72877
▁issues	-9.72898
▁normal	-9.72904
▁subtle	-9.73006
▁jones	-9.7304
▁narrative	-9.73124
▁rip	-9.73142
▁ride	-9.73213
▁("	-9.73308
there	-9.73569
▁natural	-9.7358
ca	-9.73667
▁n	-9.73747
▁charming	-9.73825
lin	-9.73828
▁beautifully	-9.73877
▁m	-9.73909
ber	-9.73913
▁drive	-9.73981
▁80'	-9.73999
▁da	-9.74319
▁opera	-9.74334
po	-9.74355
▁lo	-9.74407
▁ray	-9.74428
▁support	-9.7445
▁presence	-9.74522
▁available	-9.74524
▁literally	-9.74548
im	-9.74554
▁remains	-9.746
▁sexy	-9.74822
▁generally	-9.75114
▁animated	-9.75117
▁adaptation	-9.75211
▁key	-9.75224
▁attack	-9.75297
▁scenery	-9.75461
▁smith	-9.75509
▁),	-9.75536
▁rare	-9.75563
va	-9.75645
▁thanks	-9.75718
▁spoilers	-9.75781
▁utterly	-9.758
▁terms	-9.75935
ga	-9.76017
▁boyfriend	-9.76081
▁photography	-9.76194
▁twists	-9.7625
▁grade	-9.7627
▁moral	-9.76343
▁heavy	-9.76424
hi	-9.76466
che	-9.76613
▁motion	-9.76683
▁fresh	-9.76752
good	-9.76802
▁date	-9.76918
▁suppose	-9.76958
▁content	-9.77017
▁managed	-9.7705
▁runs	-9.77064
▁minor	-9.77271
▁indian	-9.77334
▁wall	-9.77456
▁constantly	-9.77469
▁brief	-9.77491
▁military	-9.77504
▁throw	-9.77524
▁martin	-9.77587
▁hospital	-9.77619
▁disappointment	-9.77623
▁everybody	-9.77756
▁historical	-9.77861
▁thrown	-9.77902
▁laughable	-9.77926
▁climax	-9.7811
lu	-9.78318
▁producer	-9.78437
mp	-9.78501
▁magic	-9.78559
▁books	-9.78607
▁mis	-9.78674
▁likely	-9.78695
▁audiences	-9.78759
▁happening	-9.78785
▁station	-9.78988
▁teen	-9.79042
▁building	-9.79079
9	-9.79193
▁touching	-9.7921
▁comedies	-9.79333
▁naked	-9.79462
▁shock	-9.79498
▁mid	-9.79541
▁mom	-9.79672
▁x	-9.79674
▁knowing	-9.79838
▁dan	-9.79877
▁unbelievable	-9.8007
▁painful	-9.80074
▁quick	-9.80079
▁outstanding	-9.8009
▁lovely	-9.8013
▁emotions	-9.80174
▁russian	-9.80216
▁fell	-9.80255
▁charlie	-9.80329
▁system	-9.80444
ard	-9.8045
▁details	-9.80462
▁ka	-9.80543
▁phone	-9.80585
▁finish	-9.80632
▁chris	-9.80652
▁intended	-9.80732
▁student	-9.80795
▁slowly	-9.80823
over	-9.81095
▁mouth	-9.81164
▁costumes	-9.81217
▁step	-9.81235
▁walking	-9.81335
mer	-9.81393
▁sleep	-9.81457
▁summer	-9.81485
▁mistake	-9.81524
▁fashion	-9.81768
▁sent	-9.8181
▁presented	-9.81849
▁answer	-9.81897
▁pop	-9.82009
▁double	-9.82075
▁boss	-9.82117
way	-9.82144
▁pull	-9.82225
▁?	-9.82289
▁spot	-9.82342
▁direct	-9.82529
▁hitchcock	-9.8258
▁thus	-9.82712
▁jean	-9.82719
▁emotion	-9.82765
▁equally	-9.82776
▁steve	-9.8283
▁cry	-9.83079
▁central	-9.8309
▁changes	-9.83241
▁z	-9.83246
ating	-9.83377
▁marriage	-9.83605
▁paris	-9.83648
ff	-9.83649
▁image	-9.839
▁thank	-9.83912
▁hoping	-9.83916
▁ring	-9.83939
▁90	-9.83977
▁fully	-9.83978
les	-9.84329
▁grace	-9.84338
▁pictures	-9.84406
▁tired	-9.8441
▁beat	-9.84483
▁expectations	-9.84596
▁forever	-9.84834
▁fascinating	-9.84895
▁mysterious	-9.84897
▁10.	-9.8496
▁serial	-9.85157
▁harry	-9.85308
▁tony	-9.85398
▁contains	-9.85413
▁stunning	-9.85416
▁makers	-9.85474
▁critics	-9.85691
▁sat	-9.85796
gi	-9.8582
life	-9.85852
budget	-9.85972
▁stands	-9.85986
see	-9.86007
▁zombies	-9.86153
▁suggest	-9.86261
▁cliché	-9.86399
▁opportunity	-9.86469
they	-9.86531
▁negative	-9.86602
▁include	-9.86667
▁detail	-9.86669
▁roll	-9.86688
▁aspects	-9.86717
▁surely	-9.86731
▁fellow	-9.86737
ah	-9.86835
▁professional	-9.86857
▁offer	-9.86881
▁justice	-9.86964
▁confusing	-9.86999
bb	-9.8705
▁exception	-9.87119
▁gem	-9.8724
▁theatre	-9.87278
▁extra	-9.87289
oh	-9.87396
▁bruce	-9.87409
7	-9.87497
▁gold	-9.87539
▁40	-9.87685
▁listen	-9.87732
▁names	-9.87907
▁extreme	-9.87965
▁compelling	-9.88068
gu	-9.88131
▁sight	-9.88175
▁random	-9.88206
▁feelings	-9.88307
▁folks	-9.88349
▁besides	-9.88493
▁agent	-9.88522
▁count	-9.88548
▁accept	-9.88597
▁location	-9.88635
▁laughed	-9.88681
▁church	-9.88742
▁stewart	-9.88746
▁80	-9.88846
▁impact	-9.88911
▁million	-9.88928
▁six	-9.88991
▁collection	-9.89018
▁pieces	-9.89026
▁epic	-9.89043
nd	-9.89093
ol	-9.89103
▁themes	-9.89134
ron	-9.89135
some	-9.89137
▁difference	-9.8919
ize	-9.89198
6	-9.8928
▁disaster	-9.89287
▁ahead	-9.89295
▁queen	-9.89302
▁su	-9.89331
▁affair	-9.8947
▁creative	-9.89563
▁radio	-9.89699
▁confused	-9.89997
▁share	-9.9005
top	-9.9028
▁wow	-9.90416
▁process	-9.90516
ran	-9.90628
king	-9.9065
▁trailer	-9.90766
▁students	-9.90957
▁torture	-9.9103
▁born	-9.91099
▁compare	-9.91167
▁information	-9.91211
der	-9.91306
▁fat	-9.91354
▁speaking	-9.91405
car	-9.91462
▁lived	-9.91469
▁sc	-9.91504
▁plane	-9.91513
▁:	-9.91555
▁vi	-9.91584
▁kelly	-9.91624
red	-9.9165
▁approach	-9.91746
▁gorgeous	-9.91762
▁treat	-9.91799
▁imagination	-9.91902
▁fox	-9.91905
`	-9.9194
▁judge	-9.91994
just	-9.92084
▁mainly	-9.92087
▁ne	-9.92089
▁acts	-9.92103
▁element	-9.92139
▁finding	-9.92155
▁grand	-9.92184
▁hotel	-9.92216
▁lover	-9.92247
▁likable	-9.92321
▁noir	-9.92325
▁impressed	-9.92391
▁pleasure	-9.92462
▁passion	-9.92493
▁drawn	-9.92501
▁50	-9.92603
▁favourite	-9.92603
▁soft	-9.92721
▁twice	-9.92743
▁cross	-9.92764
min	-9.92834
▁rated	-9.92877
▁machine	-9.93303
▁willing	-9.9346
▁joy	-9.93523
▁places	-9.93592
▁mix	-9.93596
▁wind	-9.93599
▁damn	-9.93623
▁developed	-9.93729
▁seemingly	-9.93754
▁porn	-9.93836
▁dreams	-9.93928
▁led	-9.93954
▁soldier	-9.94034
▁holes	-9.94071
▁lighting	-9.94076
▁industry	-9.9416
▁appeared	-9.94197
▁suicide	-9.94307
▁funniest	-9.94446
▁brown	-9.94506
ance	-9.94514
▁paid	-9.94599
▁drugs	-9.94673
ier	-9.94747
▁anymore	-9.94789
▁tend	-9.94884
year	-9.94919
▁accident	-9.9498
▁stone	-9.95039
▁bright	-9.95039
gg	-9.95089
▁struggle	-9.95215
▁build	-9.9529
▁ms	-9.9539
pe	-9.95444
▁intense	-9.9561
▁wondering	-9.95688
▁board	-9.95866
▁billy	-9.95934
▁falling	-9.95962
▁trust	-9.96022
▁attractive	-9.96038
▁flaws	-9.96042
é	-9.96123
▁therefore	-9.96179
▁apartment	-9.96202
ut	-9.9629
▁superior	-9.96325
▁latter	-9.96331
▁captain	-9.96331
jo	-9.96592
▁loose	-9.96599
▁dies	-9.96618
▁blind	-9.96624
▁christopher	-9.9663
▁delivers	-9.96687
▁rented	-9.96866
▁stuck	-9.96916
▁deliver	-9.96932
▁allowed	-9.96983
▁putting	-9.96996
▁mediocre	-9.97057
▁ugly	-9.97061
▁provide	-9.97104
▁scientist	-9.97143
▁addition	-9.97158
▁forgotten	-9.97211
8	-9.97222
▁hasn	-9.97262
▁merely	-9.97309
▁supposedly	-9.9732
▁followed	-9.97322
▁mine	-9.97351
▁member	-9.97361
▁puts	-9.974
▁reminded	-9.9745
▁absurd	-9.97486
▁jackson	-9.97535
▁jo	-9.97588
▁horse	-9.97686
let	-9.97703
cy	-9.97806
▁relationships	-9.97838
▁victims	-9.97838
▁cops	-9.97878
▁leader	-9.97976
▁regard	-9.98018
▁thin	-9.98075
bad	-9.98079
▁rape	-9.98105
▁cgi	-9.98283
▁christian	-9.98352
du	-9.98376
▁adults	-9.984
▁pilot	-9.98546
▁travel	-9.98604
▁lose	-9.98679
▁faces	-9.9868
▁shouldn	-9.98691
▁becoming	-9.9875
▁moon	-9.98761
our	-9.98811
▁absolute	-9.98869
▁ready	-9.98954
▁desert	-9.98955
▁design	-9.99101
▁ya	-9.99135
▁flicks	-9.99142
▁search	-9.99153
▁offers	-9.99178
▁page	-9.99187
▁lacks	-9.9922
▁seven	-9.99289
▁river	-9.993
▁ra	-9.99301
▁teacher	-9.9931
▁em	-9.9933
film	-9.99335
▁stock	-9.99444
▁mar	-9.99537
▁adds	-9.99547
▁li	-9.99684
▁personality	-9.99762
▁provides	-9.99807
▁ball	-9.99842
▁animals	-9.99986
▁explanation	-10.0004
▁whatsoever	-10.0004
▁batman	-10.0008
▁tragic	-10.0009
war	-10.0013
▁onto	-10.0018
▁vs	-10.0031
▁sign	-10.0032
▁creature	-10.0036
▁boat	-10.0043
▁mission	-10.0045
▁angry	-10.005
mon	-10.0057
▁bank	-10.0059
▁blame	-10.0063
▁favor	-10.0064
▁picked	-10.0066
▁tim	-10.0075
▁woods	-10.0093
ac	-10.0093
▁tragedy	-10.0095
▁priest	-10.0111
▁fu	-10.012
▁thoroughly	-10.0127
▁commentary	-10.0127
ki	-10.013
▁shop	-10.0138
▁childhood	-10.0142
ten	-10.0145
ence	-10.0147
▁turning	-10.017
ex	-10.0173
▁100	-10.0173
▁continue	-10.0173
▁allow	-10.0174
▁lord	-10.0175
▁wooden	-10.0176
▁standards	-10.0184
▁18	-10.0184
▁worthy	-10.0184
▁teenage	-10.0185
▁12	-10.0188
▁soap	-10.0193
▁helped	-10.0201
▁nasty	-10.0218
▁70	-10.0224
▁criminal	-10.0225
▁suspect	-10.0237
den	-10.0246
▁independent	-10.0249
▁friendship	-10.0251
▁sell	-10.0263
▁lies	-10.0283
▁moved	-10.0291
▁actresses	-10.0296
▁describe	-10.0301
ja	-10.0301
▁states	-10.0302
▁afraid	-10.0327
▁carry	-10.0328
▁hall	-10.0328
io	-10.0336
▁19	-10.035
▁shocking	-10.0372
▁round	-10.0375
▁v	-10.0387
rk	-10.0388
▁price	-10.039
▁clothes	-10.0391
american	-10.0397
que	-10.0404
▁program	-10.0433
▁area	-10.0434
▁proves	-10.0449
▁returns	-10.0454
▁physical	-10.0456
▁wearing	-10.0467
▁filming	-10.0478
played	-10.049
▁asked	-10.0492
▁began	-10.0497
▁artistic	-10.0504
▁length	-10.0509
ad	-10.0517
▁spoiler	-10.0523
▁instance	-10.0532
▁skip	-10.0538
&	-10.0538
▁held	-10.0548
▁memory	-10.0548
▁ran	-10.0568
▁utter	-10.057
▁flying	-10.0583
▁vision	-10.0584
▁dying	-10.0597
▁religious	-10.0597
ably	-10.06
os	-10.0604
ph	-10.0608
▁anybody	-10.0615
▁)	-10.0627
▁smile	-10.0628
work	-10.0628
▁twenty	-10.0629
▁pa	-10.0629
▁helps	-10.0629
▁floor	-10.063
▁ryan	-10.0631
▁paper	-10.0634
▁inspired	-10.0635
▁intriguing	-10.0645
▁murders	-10.0654
▁jr	-10.0659
▁zero	-10.0663
▁rarely	-10.0663
▁sucks	-10.0664
▁ro	-10.0669
par	-10.0674
▁deserve	-10.0675
▁realized	-10.0677
▁artist	-10.0678
▁food	-10.0678
▁unknown	-10.0679
▁issue	-10.0687
▁intelligence	-10.0693
▁seat	-10.0728
head	-10.0731
▁introduced	-10.0732
▁destroy	-10.0735
▁mike	-10.0737
▁conflict	-10.0746
▁energy	-10.0758
▁clean	-10.0759
▁heaven	-10.076
▁jason	-10.0761
▁discover	-10.0778
tro	-10.0785
ot	-10.0794
though	-10.0797
ak	-10.0805
▁cost	-10.0805
▁author	-10.0806
sh	-10.0807
▁jump	-10.081
ney	-10.081
zz	-10.0811
▁redeeming	-10.0817
▁suit	-10.0819
▁martial	-10.0824
▁filmmaker	-10.0828
bi	-10.0831
▁news	-10.0833
ite	-10.0837
▁necessary	-10.084
▁henry	-10.0841
▁du	-10.0844
▁wanting	-10.0855
au	-10.0857
▁brutal	-10.0859
▁sing	-10.0859
tion	-10.0865
director	-10.088
▁record	-10.0889
ass	-10.0896
▁williams	-10.0903
▁contrast	-10.0906
▁warning	-10.0907
▁anywhere	-10.0914
▁prove	-10.0916
nt	-10.0921
▁moore	-10.0925
▁el	-10.0927
▁po	-10.0933
▁knowledge	-10.094
▁games	-10.094
wa	-10.0944
kin	-10.0951
▁bob	-10.0952
▁tears	-10.0952
▁thomas	-10.0957
ate	-10.096
▁surprising	-10.0961
▁witch	-10.0961
▁animal	-10.0963
▁san	-10.0963
▁opposite	-10.0973
▁sharp	-10.0973
▁exist	-10.0977
▁watchable	-10.098
▁test	-10.0981
▁national	-10.0998
▁product	-10.1005
▁lu	-10.1006
▁magnificent	-10.1007
▁comedic	-10.1007
▁1950	-10.1023
▁chinese	-10.1024
▁rose	-10.104
▁jerry	-10.1041
▁kick	-10.1048
▁fill	-10.1055
▁hidden	-10.1057
▁speed	-10.1058
▁accurate	-10.106
▁dangerous	-10.1061
▁deeply	-10.1071
how	-10.1072
▁recall	-10.1077
▁behavior	-10.109
▁dirty	-10.1095
ure	-10.1104
▁ko	-10.1104
▁bland	-10.113
▁bloody	-10.113
▁inter	-10.1136
▁cor	-10.1137
▁relate	-10.1141
▁awkward	-10.1141
▁crowd	-10.1144
iness	-10.1155
▁nick	-10.116
▁par	-10.1167
ag	-10.1171
act	-10.1172
▁shakespeare	-10.1173
▁kevin	-10.1177
▁rob	-10.1184
▁wise	-10.1186
▁arm	-10.1191
vo	-10.1192
▁clichés	-10.1196
▁officer	-10.1196
▁allen	-10.1199
▁13	-10.1208
▁foreign	-10.121
▁stephen	-10.121
▁wonderfully	-10.1214
▁****	-10.122
▁research	-10.1226
ped	-10.124
▁chan	-10.1242
▁european	-10.1263
▁uncle	-10.1264
▁field	-10.1264
▁1970	-10.1278
▁pacing	-10.1278
▁bat	-10.1278
▁apparent	-10.1282
especially	-10.1285
ball	-10.1296
▁understanding	-10.1301
▁70'	-10.1311
▁unusual	-10.1316
▁limited	-10.1318
▁steal	-10.1325
▁wit	-10.1327
istic	-10.1329
▁below	-10.1342
ging	-10.1349
??	-10.1366
▁individual	-10.138
▁ice	-10.138
▁service	-10.1382
▁somebody	-10.1387
▁seconds	-10.139
▁holds	-10.1395
▁fault	-10.1398
▁engaging	-10.1399
▁wide	-10.1404
cing	-10.1405
▁remarkable	-10.1417
▁danny	-10.1418
▁according	-10.1418
▁failure	-10.1434
▁generation	-10.1435
▁includes	-10.1437
▁lynch	-10.1451
▁nicely	-10.1453
▁numbers	-10.1455
▁constant	-10.1456
side	-10.1466
▁thinks	-10.1467
▁howard	-10.1468
▁memories	-10.1469
▁americans	-10.1498
▁singer	-10.1498
▁anne	-10.1498
▁manage	-10.1499
▁hated	-10.1507
▁scared	-10.151
▁loss	-10.153
▁noticed	-10.1533
▁unnecessary	-10.1539
▁asks	-10.1542
▁vhs	-10.1544
▁player	-10.1545
▁grow	-10.155
▁devil	-10.1554
ned	-10.1555
▁mi	-10.1571
▁range	-10.1572
pi	-10.1573
mar	-10.1577
▁grave	-10.1582
▁president	-10.1592
▁captured	-10.161
▁whilst	-10.161
▁model	-10.1621
▁debut	-10.1621
▁community	-10.1628
▁hat	-10.1634
.....	-10.1638
▁technical	-10.165
although	-10.1657
▁event	-10.1659
gen	-10.1661
art	-10.1661
▁academy	-10.1664
▁mental	-10.1668
▁commercial	-10.1669
▁survive	-10.1669
▁gags	-10.1671
▁learned	-10.1676
br	-10.1677
ver	-10.1679
fa	-10.1689
▁hang	-10.1693
▁perspective	-10.1699
▁jeff	-10.1701
▁comparison	-10.1706
▁window	-10.1706
ities	-10.1708
▁morning	-10.1718
▁village	-10.172
▁regular	-10.1723
▁heroine	-10.1726
▁months	-10.1726
▁y	-10.1729
▁connection	-10.1743
▁pan	-10.1747
▁hey	-10.1749
▁drunk	-10.1751
▁pair	-10.1751
▁foot	-10.1756
▁fail	-10.1759
day	-10.1759
▁di	-10.1763
▁responsible	-10.1771
▁arthur	-10.1773
▁adam	-10.1774
▁johnny	-10.1774
▁desperate	-10.1777
▁humanity	-10.1779
▁fate	-10.1784
▁heroes	-10.1787
▁creating	-10.179
▁lets	-10.179
▁dealing	-10.1796
▁ill	-10.1819
▁locations	-10.1823
▁calls	-10.1825
▁mini	-10.1826
▁assume	-10.1826
▁references	-10.1829
▁media	-10.1837
ping	-10.1842
▁cash	-10.1845
▁normally	-10.1847
▁buddy	-10.1847
▁fame	-10.185
▁rubbish	-10.1862
▁driving	-10.1863
rate	-10.1863
▁current	-10.1868
▁eat	-10.1875
▁arts	-10.1899
▁partner	-10.1902
▁site	-10.1903
▁hill	-10.1909
▁humorous	-10.1921
▁faith	-10.1924
▁tape	-10.1933
▁england	-10.1935
▁rain	-10.1943
▁capture	-10.1948
ning	-10.195
▁starting	-10.1952
mm	-10.1953
▁treated	-10.1959
▁finished	-10.1962
▁explained	-10.1966
▁desire	-10.1968
ious	-10.197
▁rescue	-10.1973
can	-10.1975
▁angel	-10.1975
▁drag	-10.1976
▁ii	-10.1977
▁ja	-10.1978
cha	-10.1983
▁lacking	-10.1984
▁taylor	-10.1991
▁max	-10.1992
▁youth	-10.1999
▁protagonist	-10.2004
▁hu	-10.2017
▁fe	-10.2021
▁legend	-10.2023
▁brian	-10.2032
▁quiet	-10.2033
▁loving	-10.2053
▁beach	-10.2062
ham	-10.2062
▁davis	-10.2065
▁genuine	-10.207
ig	-10.2079
▁growing	-10.2087
ng	-10.2089
▁strength	-10.2101
▁source	-10.2103
▁bigger	-10.211
screen	-10.211
▁regret	-10.2121
▁hadn	-10.2121
▁eddie	-10.2121
▁alan	-10.2123
ign	-10.2124
▁lovers	-10.2129
▁players	-10.2141
▁keeping	-10.2142
▁african	-10.2143
▁cable	-10.2148
ud	-10.2149
▁cell	-10.2155
▁bomb	-10.2156
▁mixed	-10.2163
▁included	-10.2165
▁deserved	-10.2167
▁eric	-10.217
▁owner	-10.2175
▁numerous	-10.2177
▁advice	-10.2177
▁gotten	-10.2183
▁consist	-10.2186
▁occasionally	-10.2186
▁table	-10.2188
▁sees	-10.219
ky	-10.2192
▁vehicle	-10.2196
▁crappy	-10.2197
▁center	-10.2198
▁winning	-10.2199
▁evidence	-10.2215
▁scream	-10.2216
▁heads	-10.2217
▁visit	-10.2228
▁matt	-10.2232
▁witty	-10.2235
▁reaction	-10.2237
▁met	-10.2237
▁finest	-10.2241
▁murdered	-10.2247
▁insult	-10.2251
▁empty	-10.2252
▁routine	-10.2252
▁sh	-10.2254
ization	-10.226
▁fly	-10.2261
▁sun	-10.2264
▁dick	-10.2274
▁castle	-10.2284
▁contain	-10.2292
back	-10.2298
op	-10.2308
▁spoof	-10.2309
▁trek	-10.2322
▁private	-10.2329
▁wars	-10.233
▁finale	-10.2331
ee	-10.2337
▁context	-10.2348
lan	-10.2358
ial	-10.237
▁tight	-10.2373
▁realism	-10.2386
▁whenever	-10.2401
▁driver	-10.2402
▁lesbian	-10.2406
▁target	-10.2407
▁sean	-10.2408
▁formula	-10.2413
tu	-10.2421
▁nonsense	-10.2426
▁monsters	-10.2427
▁golden	-10.2429
▁gi	-10.2432
▁produce	-10.2439
ions	-10.2442
▁toward	-10.2448
▁originally	-10.2451
ise	-10.2455
▁pet	-10.2457
▁wayne	-10.246
▁network	-10.2463
▁ordinary	-10.2464
▁portray	-10.2464
▁gene	-10.2472
▁revealed	-10.2477
▁irritating	-10.2483
▁terribly	-10.2483
▁international	-10.2483
▁sword	-10.2485
▁alex	-10.2503
ship	-10.2506
▁loves	-10.2515
ward	-10.2521
▁spanish	-10.2522
▁essentially	-10.2529
▁hal	-10.2531
▁hunter	-10.2538
▁powers	-10.2539
▁aware	-10.254
▁che	-10.2541
▁pretentious	-10.2542
ana	-10.2542
▁naturally	-10.2544
▁lie	-10.2546
pt	-10.2546
▁australian	-10.2547
▁frankly	-10.2547
▁sky	-10.2549
	-10.255
▁broken	-10.2565
▁france	-10.2574
▁veteran	-10.258
▁shallow	-10.258
chi	-10.259
▁actions	-10.2591
▁concerned	-10.2594
▁ford	-10.2595
▁print	-10.2603
down	-10.2608
▁11	-10.2611
▁meeting	-10.2616
▁universal	-10.2619
▁satire	-10.2619
pro	-10.2624
▁pulled	-10.2628
▁frame	-10.2633
looking	-10.2636
▁stereotypes	-10.2636
▁vote	-10.2639
▁forces	-10.2644
▁luck	-10.2662
▁wedding	-10.2663
▁psycho	-10.2667
▁court	-10.2678
▁gross	-10.2678
▁warm	-10.2679
▁10/10	-10.268
▁attitude	-10.2689
▁saving	-10.27
▁wolf	-10.272
▁host	-10.2722
▁kinda	-10.2725
▁dressed	-10.2733
▁skin	-10.2735
▁unrealistic	-10.2739
▁truck	-10.2739
▁feet	-10.2748
▁lesson	-10.2753
▁flow	-10.2757
▁efforts	-10.2758
▁parody	-10.2759
▁flesh	-10.276
▁risk	-10.2761
▁robin	-10.2765
▁mel	-10.2766
▁meanwhile	-10.2779
end	-10.2787
▁develop	-10.2811
▁unfunny	-10.2819
ris	-10.2823
▁decade	-10.2831
▁decision	-10.2832
▁sucked	-10.2833
▁psychological	-10.2845
▁insane	-10.2846
▁received	-10.2847
▁spoil	-10.2848
▁ni	-10.2849
▁(19	-10.2851
▁genuinely	-10.2852
▁asian	-10.2859
▁study	-10.2859
▁screaming	-10.2861
▁discovered	-10.2861
▁gary	-10.2867
▁higher	-10.2878
▁villains	-10.2878
▁cameo	-10.2883
▁statement	-10.2883
▁traditional	-10.2891
▁spectacular	-10.2906
▁display	-10.2911
real	-10.2915
▁gangster	-10.2916
▁ri	-10.2917
▁teenagers	-10.2918
▁skills	-10.2918
▁interview	-10.2918
▁reach	-10.2919
▁cage	-10.2924
▁saved	-10.2933
▁influence	-10.2941
▁sp	-10.2945
▁edward	-10.296
▁joan	-10.2962
▁sake	-10.2964
su	-10.2967
▁dreadful	-10.2967
▁min	-10.2968
▁terror	-10.2968
▁julie	-10.2969
ok	-10.2978
▁hits	-10.2979
▁join	-10.2982
▁graphic	-10.2996
▁sheriff	-10.3
▁texas	-10.3
▁path	-10.3012
▁unable	-10.3017
▁fights	-10.3018
▁/	-10.3028
▁logic	-10.304
▁prefer	-10.304
▁chief	-10.3041
▁existence	-10.3042
▁remembered	-10.3042
);	-10.3045
???	-10.3057
▁miles	-10.3058
▁football	-10.3062
▁featuring	-10.3062
▁edited	-10.307
cu	-10.3075
▁correct	-10.3083
▁winner	-10.3085
▁imp	-10.3101
▁native	-10.3103
▁bits	-10.3112
▁deals	-10.3115
▁guns	-10.3118
made	-10.3122
▁cruel	-10.3123
▁combination	-10.3123
▁hunt	-10.3126
ko	-10.3143
▁choose	-10.3145
▁heck	-10.3145
▁disgusting	-10.315
▁pe	-10.3158
▁dated	-10.3159
▁ca	-10.3162
▁unexpected	-10.3172
▁fred	-10.3175
▁results	-10.318
▁douglas	-10.3186
▁freedom	-10.3186
▁sheer	-10.319
▁curious	-10.3193
ya	-10.3194
▁ultimate	-10.3194
gar	-10.3204
sha	-10.3206
0	-10.3206
▁relief	-10.3207
▁lewis	-10.3208
▁send	-10.3209
▁grown	-10.3213
▁teenager	-10.3218
▁gory	-10.3231
▁nightmare	-10.3231
▁degree	-10.3248
▁anthony	-10.3249
▁contrived	-10.3249
▁fish	-10.325
▁60	-10.3251
▁described	-10.3251
▁continues	-10.3285
▁fi	-10.3289
▁amateur	-10.3289
▁identity	-10.329
▁reviewers	-10.3292
▁religion	-10.3311
▁draw	-10.3314
▁corny	-10.3318
▁morgan	-10.3333
▁blonde	-10.3336
za	-10.3336
!).	-10.3339
▁insight	-10.3345
▁japan	-10.3354
▁streets	-10.3361
love	-10.3363
▁fl	-10.3364
▁***	-10.3371
▁sympathetic	-10.3375
▁tedious	-10.3375
▁ladies	-10.3375
▁surreal	-10.3375
yes	-10.3376
▁flashbacks	-10.3404
▁humans	-10.3409
▁europe	-10.3415
▁sch	-10.3421
ised	-10.3424
▁laughter	-10.3424
▁remain	-10.3428
▁lucky	-10.3429
▁cuts	-10.343
▁ann	-10.3435
▁gonna	-10.3439
▁jimmy	-10.344
▁rise	-10.3444
▁expression	-10.3448
lon	-10.3449
▁bear	-10.3453
▁reviewer	-10.3457
▁keaton	-10.346
▁lower	-10.346
▁delightful	-10.3469
▁steven	-10.3475
ap	-10.348
▁cars	-10.3481
▁grew	-10.3482
▁handsome	-10.3484
▁visually	-10.3492
▁bbc	-10.3503
▁crash	-10.3503
▁highlight	-10.3517
▁danger	-10.3524
▁treatment	-10.3526
▁semi	-10.3534
ette	-10.3534
▁eight	-10.3544
▁overly	-10.3545
▁chaplin	-10.3546
▁visuals	-10.3546
▁louis	-10.3561
why	-10.3561
izing	-10.3562
▁theatrical	-10.3567
▁bodies	-10.3569
▁involves	-10.3584
▁speech	-10.3584
▁prince	-10.3589
▁dry	-10.359
▁jennifer	-10.3591
▁underrated	-10.3591
▁delivered	-10.3594
fully	-10.36
▁endless	-10.3607
▁scenario	-10.3611
low	-10.3611
▁candy	-10.3611
▁naive	-10.3613
▁provided	-10.3615
▁promise	-10.3627
▁hide	-10.3633
▁department	-10.3633
▁rental	-10.3645
▁families	-10.3654
▁talents	-10.3655
▁hitler	-10.3658
▁sin	-10.3662
▁breaks	-10.3665
▁section	-10.3677
light	-10.3692
▁emotionally	-10.3695
▁discovers	-10.3695
▁built	-10.3698
▁seagal	-10.3698
▁amateurish	-10.3699
▁capable	-10.3699
▁chick	-10.3712
▁creatures	-10.3719
▁position	-10.372
▁jungle	-10.3721
rd	-10.3728
ker	-10.3733
▁proved	-10.3744
gan	-10.3753
▁blow	-10.3759
ach	-10.3765
▁paint	-10.3769
▁standing	-10.3777
cat	-10.3777
▁albert	-10.3787
▁hopes	-10.3789
▁tiny	-10.3791
▁cha	-10.3795
▁north	-10.38
▁proper	-10.38
▁bus	-10.3801
▁simon	-10.3807
▁surface	-10.3809
▁kong	-10.3809
gy	-10.381
▁brilliantly	-10.3811
▁levels	-10.3812
▁mirror	-10.383
▁harsh	-10.3831
▁opens	-10.3836
▁recognize	-10.3837
▁haunting	-10.3838
▁eating	-10.3839
%	-10.3839
▁asking	-10.3857
▁market	-10.3859
use	-10.386
▁costume	-10.387
?!	-10.3875
▁depiction	-10.3876
get	-10.3887
his	-10.3895
▁ruin	-10.3897
▁del	-10.3903
boy	-10.3906
▁nevertheless	-10.392
▁gordon	-10.3921
ible	-10.3921
▁majority	-10.3925
▁embarrassing	-10.3932
▁patient	-10.3939
▁depressing	-10.3964
▁ancient	-10.3964
▁enemy	-10.3965
▁storm	-10.3967
▁2.	-10.3974
▁anna	-10.3978
▁factor	-10.3979
▁executed	-10.399
▁mask	-10.3992
bu	-10.3995
▁vampires	-10.3998
▁clue	-10.4002
▁base	-10.4008
ow	-10.4022
▁achieve	-10.4035
watch	-10.4039
▁lake	-10.4044
▁bringing	-10.4044
▁allows	-10.405
▁professor	-10.4055
▁canadian	-10.4055
▁mountain	-10.4072
▁strongly	-10.4073
▁civil	-10.4074
▁nurse	-10.4076
▁horribly	-10.4078
▁prior	-10.4078
▁crack	-10.4085
▁punch	-10.4085
▁loses	-10.4085
▁charge	-10.4086
▁dollars	-10.4093
▁proud	-10.4101
▁uk	-10.4105
▁fa	-10.4109
▁circumstances	-10.4109
▁pleasant	-10.411
▁enter	-10.4111
▁viewed	-10.4111
▁gratuitous	-10.4123
▁account	-10.4124
▁junk	-10.4129
fu	-10.4131
▁aliens	-10.4135
lar	-10.4139
▁mrs	-10.4141
▁suffering	-10.4142
▁pack	-10.4142
▁lousy	-10.4146
▁tu	-10.4146
▁excited	-10.4148
▁praise	-10.4151
▁costs	-10.4164
▁rules	-10.4167
▁turkey	-10.4169
▁hi	-10.4172
▁reporter	-10.4182
▁gas	-10.4187
▁walked	-10.4188
▁prime	-10.4193
ita	-10.4194
▁sum	-10.4195
▁germany	-10.4195
▁́	-10.4215
▁jesus	-10.4216
▁bag	-10.4218
▁fool	-10.4223
▁creates	-10.4225
▁pity	-10.4231
▁anderson	-10.424
▁caused	-10.4256
▁rival	-10.4261
▁refreshing	-10.4261
▁universe	-10.4261
▁china	-10.4265
▁shadow	-10.4269
▁peace	-10.4275
tri	-10.4279
tch	-10.4281
ily	-10.4281
▁harris	-10.4282
▁portrays	-10.4302
▁abuse	-10.4302
▁pile	-10.4307
▁larry	-10.4308
▁promising	-10.4308
▁raw	-10.4312
ups	-10.4314
when	-10.4322
▁pal	-10.4326
▁blockbuster	-10.4332
▁steals	-10.4333
▁roy	-10.4335
▁dragon	-10.4336
▁jackie	-10.4341
▁murderer	-10.4349
▁safe	-10.4354
▁technology	-10.4354
▁dubbed	-10.4356
▁welcome	-10.4356
▁drop	-10.4362
har	-10.4364
▁root	-10.4365
▁passed	-10.4371
ren	-10.4374
▁cares	-10.4381
ged	-10.4383
▁encounter	-10.4391
+	-10.4391
▁rough	-10.4391
▁entertained	-10.4395
▁core	-10.4396
▁subtitles	-10.4399
▁bore	-10.44
▁contemporary	-10.4401
▁substance	-10.4401
▁task	-10.4402
▁wa	-10.4402
▁stopped	-10.4403
▁alice	-10.4405
▁sisters	-10.4406
▁theaters	-10.4407
▁sudden	-10.4412
▁united	-10.4412
▁sports	-10.4413
▁scare	-10.442
▁bell	-10.4421
▁treasure	-10.4425
▁exploitation	-10.4426
▁twisted	-10.4429
▁hopefully	-10.443
▁hearing	-10.4432
rr	-10.4433
▁shocked	-10.4436
die	-10.4444
dr	-10.4446
▁criticism	-10.4449
▁massive	-10.4449
▁till	-10.445
▁segment	-10.4457
▁walter	-10.4461
▁scale	-10.4474
▁beast	-10.4478
▁ignore	-10.4478
ix	-10.4485
ding	-10.4488
▁east	-10.4499
▁dude	-10.4506
▁wilson	-10.452
▁barbara	-10.4521
▁painfully	-10.4522
▁pat	-10.4526
▁experiment	-10.4528
where	-10.4532
pl	-10.4534
▁losing	-10.4535
▁portraying	-10.4546
▁blend	-10.4547
▁structure	-10.455
▁object	-10.4554
▁demon	-10.4561
fe	-10.4564
cut	-10.458
▁ruined	-10.4587
▁ham	-10.459
▁washington	-10.4591
▁shark	-10.4593
▁va	-10.4597
ab	-10.46
▁talks	-10.4608
▁robot	-10.4616
▁evening	-10.4617
ek	-10.4618
▁sha	-10.4619
▁conversation	-10.4628
ists	-10.4637
▁qualities	-10.4639
▁propaganda	-10.4639
wood	-10.464
▁offensive	-10.464
▁jail	-10.4641
ator	-10.4648
▁appropriate	-10.4651
field	-10.4651
▁largely	-10.4651
▁critical	-10.4654
▁experienced	-10.4663
▁execution	-10.4663
▁hack	-10.467
▁grant	-10.4672
▁satisfying	-10.4672
▁rap	-10.4677
▁convince	-10.4684
ever	-10.4684
▁gen	-10.4685
▁false	-10.4687
▁irish	-10.4688
▁claim	-10.4688
▁marry	-10.4692
▁depicted	-10.4692
▁knock	-10.4697
▁1.	-10.4698
▁mass	-10.4701
▁committed	-10.4712
sp	-10.4717
!!!!	-10.4726
▁awards	-10.4728
▁entertain	-10.473
▁anger	-10.4731
▁lawyer	-10.4736
**	-10.4739
▁chosen	-10.474
▁virtually	-10.4741
▁ju	-10.4741
bar	-10.4753
▁types	-10.4757
▁idiot	-10.4759
▁ages	-10.4759
▁slapstick	-10.476
▁halloween	-10.4762
▁pi	-10.4771
▁creep	-10.4775
▁equal	-10.4793
▁environment	-10.4798
from	-10.4799
sen	-10.48
om	-10.4803
▁movement	-10.4805
▁excitement	-10.4809
▁8/10	-10.481
▁werewolf	-10.4812
▁kiss	-10.4813
rated	-10.4819
▁weeks	-10.4821
▁comp	-10.4829
▁melodrama	-10.4833
▁kung	-10.4835
▁1980	-10.4835
▁lane	-10.4842
ps	-10.4843
▁latest	-10.4843
▁trap	-10.4843
▁walks	-10.4853
▁multi	-10.4853
▁gal	-10.4855
▁appealing	-10.486
▁protect	-10.486
ray	-10.4863
▁helen	-10.487
tv	-10.4872
▁darkness	-10.4876
▁asleep	-10.4883
▁concern	-10.4884
▁johnson	-10.4896
▁holmes	-10.4909
▁chair	-10.4909
▁pitch	-10.4911
▁angles	-10.4911
▁practically	-10.4911
▁daniel	-10.4916
oo	-10.4924
▁variety	-10.4932
▁dare	-10.4939
▁multiple	-10.4942
▁makeup	-10.4942
▁suck	-10.4943
ified	-10.4945
▁extras	-10.4957
▁mob	-10.4958
▁stan	-10.4969
han	-10.4971
▁plans	-10.4981
▁sequels	-10.4982
▁ver	-10.4988
▁unfortunate	-10.4994
▁forth	-10.5002
iest	-10.5007
▁prevent	-10.5007
▁contact	-10.5007
▁patrick	-10.5008
▁burn	-10.501
▁faithful	-10.5023
▁exact	-10.5031
▁interpretation	-10.5033
▁grim	-10.5035
▁dean	-10.5044
▁silver	-10.5049
▁dogs	-10.505
▁jewish	-10.5057
▁nominated	-10.5058
▁worthwhile	-10.5058
▁tour	-10.5059
av	-10.5064
▁**	-10.5068
▁fare	-10.5073
▁wear	-10.5075
▁hood	-10.5078
▁frightening	-10.5082
▁bra	-10.5083
▁brave	-10.5084
▁fo	-10.5084
▁holding	-10.5093
▁witness	-10.5093
▁murphy	-10.5107
▁anime	-10.5107
▁sympathy	-10.5108
▁joseph	-10.5108
▁cutting	-10.5114
▁lou	-10.5117
▁performed	-10.5123
▁roger	-10.5124
▁kate	-10.5134
▁separate	-10.5141
▁skill	-10.5145
plot	-10.5151
▁glimpse	-10.5158
▁massacre	-10.5158
nny	-10.5158
▁sir	-10.5158
ft	-10.516
▁si	-10.5167
▁teens	-10.5171
▁gain	-10.5174
hu	-10.5175
▁ted	-10.5182
▁term	-10.5183
▁mexican	-10.5184
uck	-10.5184
▁mac	-10.5185
▁cartoons	-10.5186
▁calling	-10.5195
nie	-10.5197
▁forest	-10.5205
▁russell	-10.5209
▁inept	-10.5209
ative	-10.521
▁mature	-10.5211
▁bi	-10.5213
▁hanging	-10.5214
▁suspenseful	-10.5218
▁ideal	-10.5221
▁reveal	-10.5223
▁code	-10.5224
▁rule	-10.5232
▁cousin	-10.5234
▁stereotypical	-10.5235
▁7/10	-10.5235
▁believed	-10.5236
▁guide	-10.5241
▁guilty	-10.5241
▁dress	-10.5243
writer	-10.5243
night	-10.5249
ze	-10.5251
▁training	-10.5253
▁featured	-10.5255
▁jon	-10.526
▁continuity	-10.526
▁broadway	-10.526
▁urban	-10.5261
▁honor	-10.5261
ett	-10.5263
▁chose	-10.5282
▁vietnam	-10.5285
▁cheese	-10.5286
▁parker	-10.529
▁tradition	-10.5296
horror	-10.5301
▁victor	-10.5301
▁previously	-10.5303
▁classics	-10.5307
▁handled	-10.5307
▁fits	-10.531
▁carpenter	-10.5311
▁elizabeth	-10.5312
▁cooper	-10.5313
▁relatively	-10.5319
run	-10.5331
ress	-10.5334
▁california	-10.5337
▁reputation	-10.5337
▁1960	-10.5337
▁saturday	-10.5338
▁flight	-10.5338
▁birth	-10.534
ugh	-10.5343
written	-10.5353
▁inner	-10.5358
▁dig	-10.5361
▁14	-10.5361
▁category	-10.5363
▁extraordinary	-10.5363
▁supernatural	-10.5363
▁obsessed	-10.5364
▁belief	-10.5368
▁ga	-10.5369
▁suffers	-10.537
▁clichéd	-10.5372
▁captures	-10.5372
▁description	-10.5389
▁everywhere	-10.5395
▁initial	-10.5401
▁bitter	-10.5406
▁kim	-10.541
ery	-10.542
len	-10.5424
▁breath	-10.5427
▁mor	-10.543
gue	-10.543
▁spy	-10.543
▁bothered	-10.5437
▁atrocious	-10.5441
▁tear	-10.5446
▁guard	-10.5448
▁chi	-10.5448
▁touches	-10.5451
ble	-10.5453
including	-10.5457
▁freak	-10.5457
▁weekend	-10.5468
▁cave	-10.5469
▁lion	-10.5482
face	-10.5482
john	-10.5483
▁granted	-10.5486
▁bull	-10.5487
▁learns	-10.5492
▁forgettable	-10.5493
▁shape	-10.5502
▁crying	-10.551
▁disc	-10.5514
▁matters	-10.5516
▁disagree	-10.5519
▁cowboy	-10.552
▁spin	-10.5524
val	-10.5528
ving	-10.5528
▁africa	-10.5541
▁ludicrous	-10.5545
▁erotic	-10.5546
▁directly	-10.5546
▁accidentally	-10.555
play	-10.5551
▁spell	-10.5551
***	-10.5552
▁express	-10.5552
▁row	-10.5552
tra	-10.5553
fest	-10.5559
▁repeat	-10.556
▁revolution	-10.5571
▁drew	-10.5572
ville	-10.5577
▁figured	-10.5592
▁shut	-10.5594
▁25	-10.5596
uff	-10.5598
▁concert	-10.5598
▁politics	-10.5598
sta	-10.56
▁destroyed	-10.5601
▁intellectual	-10.5613
▁voices	-10.5616
▁jerk	-10.5617
▁chuck	-10.5619
more	-10.5624
▁eastwood	-10.5625
▁dennis	-10.5626
▁speaks	-10.5628
▁warn	-10.5635
▁unlikely	-10.5636
▁studios	-10.5643
▁southern	-10.5652
▁spite	-10.5656
port	-10.5663
▁trilogy	-10.5678
▁trapped	-10.5678
▁security	-10.5679
▁tarzan	-10.5679
▁cons	-10.5685
▁farm	-10.569
▁hip	-10.5695
▁required	-10.5714
▁prepared	-10.5714
▁claims	-10.5715
ell	-10.572
▁corner	-10.5726
▁benefit	-10.5732
▁unconvincing	-10.5732
▁ken	-10.5735
law	-10.575
00	-10.5756
▁forgot	-10.5758
▁narration	-10.5758
▁donald	-10.576
▁sensitive	-10.576
▁warner	-10.5761
▁chain	-10.5767
▁abandoned	-10.5767
▁screening	-10.5773
ang	-10.578
ile	-10.5784
▁creation	-10.5788
▁covered	-10.5792
▁haunted	-10.5793
▁amazingly	-10.5793
▁serve	-10.5802
tan	-10.5812
▁summary	-10.5812
▁col	-10.5816
▁gag	-10.5821
▁closer	-10.5821
▁crude	-10.5822
▁serves	-10.5824
▁flashback	-10.5829
▁assistant	-10.584
ji	-10.584
▁effectively	-10.5849
ical	-10.5851
fer	-10.5856
▁accents	-10.5857
ens	-10.5874
town	-10.5877
coming	-10.588
▁format	-10.5883
▁dear	-10.5886
▁deadly	-10.5886
▁brooks	-10.5899
▁metal	-10.5903
berg	-10.5903
▁bound	-10.5905
▁16	-10.5916
▁presents	-10.592
▁renting	-10.5926
action	-10.5928
▁suffer	-10.5928
mate	-10.593
▁remotely	-10.5934
▁snow	-10.5937
▁status	-10.5949
▁char	-10.595
▁legendary	-10.595
▁hong	-10.5952
▁mst	-10.5954
▁tree	-10.5966
▁text	-10.5967
▁device	-10.5969
▁vacation	-10.5976
▁strip	-10.5976
▁stolen	-10.5979
▁seek	-10.598
very	-10.5982
▁paced	-10.5983
").	-10.5984
▁meat	-10.5986
too	-10.5991
▁breaking	-10.6
hard	-10.6001
style	-10.6003
▁league	-10.6004
▁killers	-10.6004
▁imagery	-10.6006
,000	-10.6006
▁bow	-10.6008
pin	-10.6018
▁nose	-10.6018
▁pin	-10.6023
▁nazi	-10.6027
row	-10.603
▁4/10	-10.6032
▁repeated	-10.6037
something	-10.6049
▁stranger	-10.6051
▁reference	-10.6054
▁comical	-10.6056
▁fulci	-10.6059
▁gruesome	-10.6059
▁coach	-10.6061
▁whoever	-10.6064
▁cu	-10.6065
▁buck	-10.6071
▁plant	-10.6072
▁expert	-10.6074
▁lay	-10.6074
▁occasional	-10.6075
▁hired	-10.6077
▁indie	-10.6079
▁focused	-10.608
▁betty	-10.6084
▁india	-10.609
▁via	-10.6091
▁hole	-10.6106
▁convinced	-10.6107
▁dozen	-10.6115
▁alright	-10.6115
▁mainstream	-10.6116
▁block	-10.6117
qui	-10.6121
▁succeed	-10.6122
ina	-10.6126
▁delight	-10.6127
▁dev	-10.6134
▁dinner	-10.6143
▁lifetime	-10.6146
▁letter	-10.6149
▁pretend	-10.6149
▁angle	-10.6167
▁teeth	-10.6171
▁funnier	-10.6199
▁closing	-10.6199
▁smoke	-10.62
pre	-10.62
▁mildly	-10.6208
iv	-10.6212
▁demons	-10.6213
dimensional	-10.6217
▁pulls	-10.6223
▁weapons	-10.6224
ford	-10.6225
▁heavily	-10.6227
▁hoffman	-10.6227
▁stomach	-10.6227
▁gritty	-10.6228
▁drink	-10.6233
▁deeper	-10.6235
▁raised	-10.6243
▁listening	-10.6244
▁seasons	-10.6246
▁clark	-10.6247
▁handle	-10.6251
▁underground	-10.6256
▁dracula	-10.6256
▁friday	-10.6257
▁thankfully	-10.6258
▁trick	-10.6264
▁combined	-10.6265
ising	-10.6267
gra	-10.6278
▁cultural	-10.6285
▁interviews	-10.6287
▁pen	-10.6291
▁experiences	-10.6298
called	-10.63
▁technically	-10.6304
vin	-10.6306
▁westerns	-10.6311
▁necessarily	-10.6312
▁ninja	-10.6313
▁arms	-10.6318
▁blah	-10.6322
▁superman	-10.6324
nk	-10.6325
▁arrives	-10.6326
▁julia	-10.6332
▁brand	-10.6332
):	-10.6334
▁adventures	-10.6335
▁stayed	-10.6335
▁warned	-10.6336
hearted	-10.6337
▁amazed	-10.6345
class	-10.6346
▁sounded	-10.6347
▁kane	-10.6348
▁santa	-10.635
▁focuses	-10.6352
▁driven	-10.6354
rn	-10.6354
▁nonetheless	-10.6369
▁changing	-10.6376
▁curse	-10.6383
after	-10.6392
▁hire	-10.6394
▁border	-10.6397
▁facial	-10.6398
▁philip	-10.6398
▁baseball	-10.6398
▁sunday	-10.6398
▁uninteresting	-10.6398
▁weapon	-10.6401
▁downright	-10.6402
▁remote	-10.6413
nn	-10.6416
▁realizes	-10.6416
▁colors	-10.6419
▁magical	-10.6422
▁flash	-10.6423
▁greater	-10.6425
▁surprises	-10.6425
▁paying	-10.6426
▁sinatra	-10.6426
▁blown	-10.6431
▁offered	-10.6438
▁carl	-10.6444
ari	-10.6458
▁press	-10.646
▁buying	-10.6471
▁understood	-10.6484
▁afternoon	-10.6484
▁nine	-10.6487
▁mu	-10.6493
▁ram	-10.6499
▁challenge	-10.65
▁placed	-10.65
▁jay	-10.651
▁obnoxious	-10.6513
▁luke	-10.6515
▁princess	-10.6515
▁ron	-10.6518
ung	-10.6519
▁gu	-10.6519
▁theory	-10.6526
zi	-10.6536
▁holiday	-10.6542
▁broad	-10.6543
▁mickey	-10.6543
▁nude	-10.6543
▁mistakes	-10.6544
▁stunt	-10.6549
▁pie	-10.655
▁miller	-10.6552
▁racist	-10.6571
▁wreck	-10.6574
▁usa	-10.6575
▁complicated	-10.6576
▁designed	-10.6577
▁wave	-10.6578
▁halfway	-10.6578
▁condition	-10.6578
▁guest	-10.6578
▁decades	-10.6581
▁lonely	-10.6581
▁initially	-10.6586
▁originality	-10.6595
▁hammer	-10.6601
▁susan	-10.6604
▁goofy	-10.6606
hero	-10.6608
▁connect	-10.6613
▁aunt	-10.6615
▁perform	-10.6616
▁topic	-10.6628
▁pregnant	-10.663
▁uniform	-10.663
▁campy	-10.6632
▁mill	-10.6651
▁inspiration	-10.6656
pp	-10.6657
▁introduction	-10.6659
▁ocean	-10.666
▁revelation	-10.666
▁quote	-10.6662
▁significant	-10.6675
cle	-10.6684
lam	-10.6686
▁passing	-10.6689
▁tongue	-10.6689
▁cringe	-10.6693
▁barry	-10.6696
▁timing	-10.6701
▁pitt	-10.6706
▁delivery	-10.6708
▁reveals	-10.6716
▁competent	-10.6719
▁nation	-10.6726
▁rush	-10.6728
▁gra	-10.6728
▁dollar	-10.673
▁believes	-10.6739
▁throwing	-10.6741
▁fabulous	-10.6748
▁racism	-10.6748
▁quirky	-10.6749
nce	-10.6757
▁balance	-10.6762
▁craft	-10.6763
▁quest	-10.6777
▁nuclear	-10.6778
▁rank	-10.6779
▁ser	-10.6794
▁rolling	-10.6796
▁roman	-10.682
▁sitcom	-10.6823
▁wins	-10.6823
▁parent	-10.6826
▁served	-10.6827
ide	-10.6832
▁horrific	-10.6838
▁argue	-10.6838
▁medical	-10.6838
▁fbi	-10.684
▁size	-10.685
▁fourth	-10.6852
▁choices	-10.6854
▁explains	-10.6873
▁everyday	-10.6877
▁chilling	-10.6877
ov	-10.6878
▁bath	-10.6887
human	-10.6887
▁desperately	-10.689
▁kar	-10.6891
▁authentic	-10.6897
▁struggling	-10.6898
▁beloved	-10.6898
▁mere	-10.6901
▁cook	-10.6902
story	-10.6902
▁hint	-10.6902
▁comedian	-10.6912
set	-10.6913
▁lloyd	-10.6928
▁magazine	-10.6928
▁mgm	-10.6928
▁extent	-10.6928
▁soviet	-10.6928
▁wwii	-10.693
▁roberts	-10.693
▁succeeds	-10.6931
▁burton	-10.6932
▁shake	-10.6938
▁attempting	-10.6941
▁cr	-10.6942
▁stupidity	-10.6942
▁adding	-10.6942
▁:)	-10.6947
▁scares	-10.6951
▁favorites	-10.6954
▁internet	-10.6958
▁sand	-10.6962
▁val	-10.6978
▁drinking	-10.6981
▁tune	-10.6984
▁daily	-10.6989
▁sarah	-10.6991
▁bush	-10.6995
▁bro	-10.7004
▁fix	-10.7004
ura	-10.7008
▁garden	-10.702
▁oz	-10.7022
air	-10.7024
▁learning	-10.7025
▁welles	-10.7028
▁properly	-10.7037
point	-10.7038
▁spring	-10.7042
▁broke	-10.7043
▁mindless	-10.7043
▁glass	-10.7047
▁th	-10.7048
▁appreciated	-10.7049
▁17	-10.7049
▁advantage	-10.705
▁manager	-10.7056
▁convey	-10.7059
▁carried	-10.706
"),	-10.7068
▁lights	-10.7068
▁upset	-10.7069
ec	-10.7076
▁disbelief	-10.708
▁breathtaking	-10.708
▁trade	-10.7084
▁measure	-10.7111
▁storytelling	-10.7115
wing	-10.712
now	-10.7121
hr	-10.7122
az	-10.7124
wise	-10.7126
except	-10.7132
▁throws	-10.7135
▁versions	-10.7136
▁franchise	-10.7142
▁union	-10.7146
▁dar	-10.7146
▁cal	-10.7151
▁fictional	-10.7157
▁realise	-10.7166
key	-10.7169
▁je	-10.7172
▁poignant	-10.7173
▁principal	-10.7173
▁shi	-10.7176
▁virgin	-10.7181
▁stretch	-10.7182
▁purely	-10.7188
▁tro	-10.7195
▁touched	-10.7196
▁woody	-10.7202
▁bollywood	-10.7204
▁knight	-10.7204
▁broadcast	-10.7205
vis	-10.7214
▁madness	-10.7215
▁solve	-10.7218
▁brad	-10.7221
bit	-10.7227
▁har	-10.7234
▁striking	-10.7235
▁plastic	-10.7235
▁reminiscent	-10.7235
▁silence	-10.7236
▁button	-10.7237
▁tense	-10.7237
are	-10.7241
▁italy	-10.7245
▁link	-10.7246
▁dislike	-10.7253
mart	-10.7256
▁corrupt	-10.7265
▁freddy	-10.7267
▁helping	-10.7269
▁determined	-10.7272
▁starred	-10.7273
▁accepted	-10.7277
bel	-10.7282
▁carries	-10.7282
▁sold	-10.7292
▁screenwriter	-10.7294
qua	-10.7294
▁basis	-10.7298
▁maria	-10.7301
▁related	-10.7302
liners	-10.7304
▁react	-10.7313
▁expressions	-10.7317
▁sleeping	-10.7319
jack	-10.7322
▁figures	-10.7328
▁greek	-10.7329
▁entry	-10.733
▁retarded	-10.7333
ual	-10.7342
▁pot	-10.7351
▁technique	-10.7354
▁bin	-10.7355
▁sides	-10.7357
▁controversial	-10.7361
▁savage	-10.7361
▁overcome	-10.7367
▁ki	-10.7368
tter	-10.7372
▁weight	-10.7375
yn	-10.7375
dead	-10.7383
▁dave	-10.7385
▁credible	-10.7392
▁exercise	-10.7392
▁sinister	-10.7392
▁miscast	-10.7393
▁9/10	-10.7393
▁predator	-10.7394
▁ego	-10.7394
▁web	-10.7394
▁achievement	-10.7396
ven	-10.7405
▁flawed	-10.741
▁finger	-10.7424
▁credibility	-10.7424
▁lust	-10.7424
▁card	-10.7424
▁specific	-10.7425
▁presentation	-10.7431
lic	-10.7431
▁causes	-10.7436
▁notable	-10.744
▁push	-10.7446
▁leg	-10.7447
▁mentally	-10.7448
ku	-10.7453
▁answers	-10.7455
▁marie	-10.7456
▁confusion	-10.7456
▁stylish	-10.7456
ries	-10.7459
ice	-10.7462
comedy	-10.7464
▁walker	-10.7466
▁eva	-10.7477
..."	-10.7477
▁idiotic	-10.7479
▁prostitute	-10.7488
▁lisa	-10.749
▁ge	-10.749
▁karen	-10.7491
▁strangely	-10.7502
▁bur	-10.7504
▁hundred	-10.7517
hey	-10.7519
▁innocence	-10.752
▁obsession	-10.752
▁happiness	-10.7521
▁3/10	-10.7522
▁editor	-10.7523
▁enjoying	-10.7523
▁artists	-10.7524
ened	-10.7525
▁bare	-10.7531
▁pool	-10.7537
▁australia	-10.7543
▁lazy	-10.7553
▁cynical	-10.7557
▁tommy	-10.7557
▁flaw	-10.7563
▁khan	-10.7576
cent	-10.7576
▁rings	-10.7583
▁cap	-10.7583
▁nowadays	-10.7584
▁ashamed	-10.7585
▁awake	-10.7587
▁neck	-10.7588
▁laura	-10.759
▁mal	-10.7591
▁von	-10.7594
▁bu	-10.7597
▁perfection	-10.7599
▁assassin	-10.7604
▁countries	-10.7617
▁vincent	-10.7618
▁attraction	-10.7619
look	-10.7622
▁ironic	-10.7637
▁bergman	-10.7649
▁1940	-10.765
▁3.	-10.765
gr	-10.7653
▁wears	-10.7653
py	-10.7656
done	-10.7662
▁sorts	-10.7667
▁slight	-10.7671
going	-10.7681
▁wanna	-10.7681
▁pacino	-10.7682
▁executive	-10.7682
ou	-10.7689
▁revolves	-10.7689
cho	-10.7698
▁attacked	-10.7699
▁thousands	-10.7706
▁te	-10.7708
hop	-10.7711
▁ke	-10.7715
▁graphics	-10.7719
▁caine	-10.7719
ino	-10.7719
new	-10.772
▁punk	-10.7732
shi	-10.7736
▁bird	-10.7745
▁portrait	-10.7747
▁identify	-10.7747
▁contract	-10.7748
▁foster	-10.7748
▁proof	-10.7752
▁hardy	-10.7753
big	-10.7758
▁carrying	-10.7759
nu	-10.7759
▁drives	-10.7762
▁bridge	-10.7772
▁hook	-10.7776
▁exceptional	-10.7776
▁threat	-10.7778
▁mexico	-10.778
▁gripping	-10.778
▁iron	-10.7781
▁wealthy	-10.7786
▁tit	-10.7787
ev	-10.7789
▁replaced	-10.7792
dis	-10.7793
▁caring	-10.7796
known	-10.7801
▁raise	-10.7802
ties	-10.7808
▁fairy	-10.7812
▁backdrop	-10.7813
▁sutherland	-10.7813
▁spiritual	-10.7814
▁oliver	-10.7817
▁frequently	-10.7822
▁tri	-10.7836
under	-10.7836
ara	-10.7839
ied	-10.7845
▁sleazy	-10.7846
▁catherine	-10.7847
hy	-10.785
▁bride	-10.7851
▁tall	-10.7852
▁cheer	-10.787
black	-10.7871
▁pg	-10.7875
▁appalling	-10.7879
▁homage	-10.7879
▁intensity	-10.7879
▁stanwyck	-10.7879
▁blair	-10.788
▁columbo	-10.788
▁embarrassed	-10.7883
ending	-10.7883
▁satan	-10.7893
▁cant	-10.7905
▁notorious	-10.7913
ju	-10.7916
▁fortunately	-10.7918
▁whereas	-10.7919
gle	-10.792
▁useless	-10.7923
▁letting	-10.793
▁pink	-10.793
cl	-10.7936
▁christ	-10.7945
▁kennedy	-10.7946
▁tribute	-10.7946
▁laid	-10.7952
▁attacks	-10.7952
▁corn	-10.7954
▁2)	-10.7954
▁wal	-10.7956
▁stays	-10.7956
▁fallen	-10.7958
▁gift	-10.7962
▁opened	-10.7968
▁colour	-10.7974
▁lovable	-10.798
▁response	-10.798
▁0	-10.7982
▁regardless	-10.7983
▁bug	-10.7984
dom	-10.7987
▁monkey	-10.7988
▁matrix	-10.8015
▁powell	-10.8015
q	-10.8016
▁thousand	-10.8022
▁worry	-10.8026
aged	-10.8029
_	-10.8036
▁reflect	-10.8036
▁guessing	-10.8037
▁rod	-10.804
▁thirty	-10.8047
▁1990	-10.8048
▁duke	-10.8051
girl	-10.8052
▁gar	-10.8056
▁split	-10.8061
▁def	-10.8061
▁exists	-10.8068
▁cure	-10.807
▁rat	-10.8077
▁catholic	-10.8081
▁diamond	-10.8081
▁britain	-10.8081
▁2001	-10.8082
grade	-10.8082
▁shy	-10.8082
▁sexuality	-10.8087
▁cameron	-10.8087
▁guts	-10.8089
▁string	-10.8094
▁resort	-10.8104
je	-10.8109
▁atmospheric	-10.8115
▁dynamic	-10.8115
▁imaginative	-10.8115
▁1/10	-10.8117
lock	-10.8117
▁views	-10.8133
▁ear	-10.8137
▁clips	-10.8139
▁ratings	-10.8148
▁circle	-10.8149
▁investigate	-10.8149
long	-10.815
▁rid	-10.8152
▁showcase	-10.8152
▁discussion	-10.8153
▁sim	-10.8154
▁zone	-10.8156
▁trail	-10.8178
▁span	-10.8183
▁nancy	-10.8184
▁tea	-10.8187
▁searching	-10.8198
▁depend	-10.82
▁criminals	-10.8205
▁marvelous	-10.8205
▁meaningful	-10.8207
▁steps	-10.8215
▁courage	-10.8217
isation	-10.8218
▁ultra	-10.8218
▁fortune	-10.8218
▁throat	-10.8219
▁michelle	-10.822
▁60'	-10.8222
▁intent	-10.8222
cur	-10.8223
▁stealing	-10.8226
part	-10.8232
also	-10.8233
▁trial	-10.8235
ica	-10.8239
show	-10.8242
white	-10.8243
▁bugs	-10.8243
▁march	-10.8247
▁maintain	-10.8247
▁companion	-10.8252
▁sneak	-10.8252
▁oil	-10.8253
▁blade	-10.8256
▁alas	-10.8258
ai	-10.8261
▁ty	-10.8261
▁ze	-10.8266
▁neighbor	-10.8267
read	-10.827
▁struggles	-10.8275
▁official	-10.8276
▁seeking	-10.8285
▁q	-10.8285
▁horrendous	-10.8287
▁investigation	-10.8287
▁knife	-10.8287
▁thief	-10.8287
▁flynn	-10.8287
▁hiding	-10.8288
▁boredom	-10.8288
▁et	-10.8289
"?	-10.8298
▁lessons	-10.8302
▁puppet	-10.8303
sky	-10.8306
/10	-10.8309
▁physically	-10.8316
▁complain	-10.832
only	-10.8321
▁ourselves	-10.8322
▁dawn	-10.8322
▁burns	-10.8322
ically	-10.8326
▁shower	-10.8329
▁examples	-10.833
sses	-10.8337
---	-10.8345
▁stunts	-10.8349
▁surrounding	-10.8349
▁cre	-10.835
▁deaths	-10.8351
▁restaurant	-10.8357
▁wicked	-10.8357
▁competition	-10.8357
▁admire	-10.8357
▁lying	-10.8358
▁toilet	-10.8359
▁pun	-10.8364
▁cup	-10.8365
▁jet	-10.8365
▁instantly	-10.8366
▁sacrifice	-10.8374
ay	-10.838
▁minds	-10.8386
▁connery	-10.8392
▁scheme	-10.8392
▁korean	-10.8393
▁consequences	-10.8394
▁picks	-10.8395
ade	-10.8404
▁minimal	-10.8405
▁defend	-10.8409
▁settings	-10.8409
▁los	-10.8411
▁month	-10.8414
▁noble	-10.8416
▁aired	-10.8421
fire	-10.8422
eg	-10.8422
▁victoria	-10.8424
▁friendly	-10.8425
▁document	-10.8426
▁tarantino	-10.8427
▁ripped	-10.8428
▁thoughts	-10.843
▁4.	-10.8442
▁productions	-10.8444
▁freeman	-10.8446
▁essential	-10.8449
▁offering	-10.8449
▁suffered	-10.845
maybe	-10.845
▁riding	-10.8451
▁attempted	-10.8454
▁escapes	-10.8462
▁bobby	-10.8464
▁needless	-10.8467
▁spoken	-10.8467
▁behave	-10.8483
▁yo	-10.8484
▁sally	-10.8485
▁mag	-10.8488
tal	-10.8491
10	-10.8491
right	-10.85
▁techniques	-10.8504
▁poster	-10.8507
▁irony	-10.8508
▁successfully	-10.8509
aka	-10.851
▁greatly	-10.8514
▁bon	-10.8519
▁command	-10.8525
▁reynolds	-10.8533
teen	-10.8533
▁fri	-10.854
did	-10.8541
room	-10.8542
▁bone	-10.8547
▁established	-10.8547
▁fighter	-10.8548
▁hence	-10.8551
▁hooked	-10.8552
▁settle	-10.8554
ny	-10.8559
▁tales	-10.8559
▁penn	-10.8566
▁jamie	-10.8569
del	-10.8572
▁bible	-10.8573
▁sentimental	-10.8575
▁bri	-10.8576
▁blast	-10.859
▁sta	-10.8592
▁upper	-10.8594
▁neat	-10.8595
▁practice	-10.8604
▁disease	-10.8604
▁birthday	-10.8604
▁stiff	-10.8605
away	-10.8607
▁flawless	-10.8608
▁legs	-10.8608
tes	-10.8611
▁lesser	-10.8613
▁busy	-10.862
▁oddly	-10.8627
▁baker	-10.863
▁novels	-10.8636
▁pr	-10.8639
?).	-10.8639
▁blank	-10.8639
▁neighborhood	-10.864
▁unforgettable	-10.864
▁endearing	-10.8643
▁refuses	-10.8646
wan	-10.8652
▁fatal	-10.8658
ability	-10.8666
▁achieved	-10.8668
▁tank	-10.8671
▁clown	-10.8676
▁newspaper	-10.8676
▁peak	-10.8678
▁mouse	-10.8678
▁tag	-10.8681
▁andrews	-10.8682
ain	-10.8687
▁guilt	-10.8689
▁bla	-10.8689
ations	-10.8692
▁wasting	-10.8694
▁fond	-10.8699
▁appearing	-10.87
school	-10.8702
▁wake	-10.8709
mr	-10.8709
▁liberal	-10.8712
▁navy	-10.8712
▁scarecrow	-10.8713
▁basement	-10.8714
▁teach	-10.8714
▁grey	-10.8717
place	-10.8719
▁cur	-10.8729
▁colorful	-10.8734
...)	-10.8734
▁incident	-10.8735
▁forgive	-10.8738
▁tied	-10.8743
▁piano	-10.8749
▁thick	-10.8751
▁shirt	-10.8752
▁suggests	-10.8755
▁intentions	-10.8757
▁urge	-10.8757
ax	-10.876
▁cabin	-10.8762
▁scientists	-10.8764
▁belongs	-10.8773
▁millions	-10.8776
▁sings	-10.8781
▁troubled	-10.8783
▁shines	-10.8783
▁burt	-10.8784
▁hundreds	-10.8788
zo	-10.8788
▁wing	-10.8799
▁impress	-10.88
▁advance	-10.8801
▁profound	-10.8808
▁crafted	-10.8809
▁intention	-10.8809
▁rachel	-10.8822
▁bang	-10.8822
▁briefly	-10.8824
▁doll	-10.8831
▁closely	-10.8839
series	-10.8852
▁snake	-10.8853
▁cruise	-10.8858
▁ensemble	-10.8858
▁essence	-10.8858
▁digital	-10.8858
▁plots	-10.8858
▁drawing	-10.8858
▁jazz	-10.8858
▁hbo	-10.886
▁gray	-10.887
▁thrilling	-10.8875
▁jumps	-10.8878
▁royal	-10.8878
▁chest	-10.8879
▁outrageous	-10.8881
▁norman	-10.8882
▁wishes	-10.8886
bus	-10.8888
van	-10.8889
▁merit	-10.8889
nal	-10.8891
▁arnold	-10.8894
▁jessica	-10.8895
▁melodramatic	-10.8896
▁facts	-10.8896
▁enjoyment	-10.8907
▁holly	-10.8907
▁connected	-10.8917
ium	-10.8921
minute	-10.8921
try	-10.8922
▁tan	-10.8925
▁lacked	-10.8929
▁explicit	-10.8931
▁miserably	-10.8931
▁uncomfortable	-10.8931
▁uninspired	-10.8932
hood	-10.8933
▁adapted	-10.894
▁annoyed	-10.894
▁heat	-10.8953
▁sn	-10.8958
▁boot	-10.8963
▁appearances	-10.8964
▁glory	-10.8968
▁prejudice	-10.8968
▁chasing	-10.8969
rie	-10.897
▁personalities	-10.897
nes	-10.897
▁elsewhere	-10.8973
▁burst	-10.8978
▁carefully	-10.898
spoilers	-10.8981
▁pit	-10.8983
▁confront	-10.8985
▁din	-10.8989
▁rec	-10.8999
yl	-10.9003
▁matthau	-10.9005
▁cannibal	-10.9006
▁protagonists	-10.9016
▁torn	-10.9021
list	-10.9024
▁plague	-10.9025
zy	-10.9036
▁critic	-10.904
▁performers	-10.904
▁spending	-10.9042
▁medium	-10.9043
▁sidney	-10.9043
▁kidnapped	-10.9043
▁invisible	-10.9044
▁staff	-10.9045
▁function	-10.9046
▁opposed	-10.9048
dan	-10.9058
ns	-10.9065
▁infamous	-10.9068
▁inform	-10.907
▁gotta	-10.9073
▁ghosts	-10.9076
▁commit	-10.9077
▁hitch	-10.9079
▁slap	-10.9079
▁jonathan	-10.908
▁struck	-10.908
ado	-10.9085
▁pig	-10.9086
▁heist	-10.9095
▁ward	-10.9096
▁coast	-10.9103
▁persona	-10.9107
▁phil	-10.9108
▁health	-10.9108
▁sends	-10.9114
▁motivation	-10.9116
▁counter	-10.9117
▁repetitive	-10.9118
▁afford	-10.9118
▁egg	-10.9122
▁blows	-10.913
▁hol	-10.913
▁importantly	-10.9134
▁bre	-10.9134
ria	-10.9136
▁screw	-10.9138
▁explore	-10.9138
vy	-10.9139
bra	-10.914
▁calm	-10.9149
▁lab	-10.915
▁reel	-10.9153
▁laurel	-10.9156
▁portion	-10.9161
▁sole	-10.9176
▁stra	-10.9176
pping	-10.9187
▁ambitious	-10.9193
▁destruction	-10.9193
▁happily	-10.9193
▁ralph	-10.9193
▁exchange	-10.9194
▁montage	-10.9194
▁stress	-10.9195
▁beer	-10.9196
▁acceptable	-10.9198
fr	-10.9202
▁logical	-10.9211
▁larger	-10.9215
make	-10.9217
▁mitchell	-10.9232
▁owen	-10.9235
▁angels	-10.9239
▁redeem	-10.9249
▁outcome	-10.9251
elli	-10.9253
▁rushed	-10.9255
▁flop	-10.9256
▁lit	-10.9258
video	-10.9259
▁bucks	-10.926
▁notch	-10.9263
ular	-10.9265
▁superficial	-10.927
▁unpleasant	-10.927
▁combat	-10.927
▁cardboard	-10.927
▁faced	-10.9274
▁returning	-10.9283
▁swear	-10.9287
▁repeatedly	-10.9288
▁beating	-10.9292
ks	-10.9293
great	-10.9298
▁dancer	-10.9299
▁sal	-10.9302
▁redemption	-10.9308
▁audio	-10.9308
▁grandfather	-10.9308
▁spread	-10.9308
▁bleak	-10.9309
▁expensive	-10.9309
▁wax	-10.9311
▁spike	-10.9311
▁subplot	-10.9312
▁90'	-10.9315
▁heroic	-10.9333
▁defeat	-10.9334
▁tricks	-10.9338
lly	-10.9344
▁nelson	-10.9346
▁bottle	-10.9346
▁crisis	-10.9346
▁mansion	-10.9349
▁buff	-10.935
▁increasingly	-10.935
▁elaborate	-10.9368
▁lone	-10.937
acted	-10.937
▁lock	-10.9374
gh	-10.9374
▁suits	-10.9376
▁ignored	-10.9376
▁load	-10.9379
▁library	-10.9385
▁lugosi	-10.9385
▁square	-10.9385
▁territory	-10.9385
▁trite	-10.9386
ini	-10.9387
▁tap	-10.9392
will	-10.9393
▁concerns	-10.9393
▁scar	-10.9396
▁talked	-10.9397
▁woo	-10.9398
▁sink	-10.9399
▁ruthless	-10.94
▁dealt	-10.9401
▁unit	-10.9405
michael	-10.9414
mel	-10.9414
▁45	-10.9416
▁revealing	-10.9417
acting	-10.9418
▁triumph	-10.9423
▁dubbing	-10.9424
▁chapter	-10.9425
▁dragged	-10.9425
pol	-10.9425
▁hills	-10.9432
▁ru	-10.9435
▁develops	-10.9437
▁locked	-10.9449
▁sexually	-10.9452
▁horses	-10.9454
▁jan	-10.9455
od	-10.9458
▁curiosity	-10.9463
▁inevitable	-10.9463
▁spielberg	-10.9463
▁gothic	-10.9463
▁importance	-10.9463
▁stood	-10.9463
▁dropped	-10.9463
▁diane	-10.9464
▁sw	-10.9473
▁hum	-10.9477
▁outer	-10.9479
such	-10.9487
▁lift	-10.9489
world	-10.9489
▁mate	-10.9497
▁cole	-10.9498
▁charisma	-10.9501
▁remaining	-10.9502
▁relevant	-10.9502
▁funeral	-10.9502
▁installment	-10.9502
▁morris	-10.9503
▁hunting	-10.9503
▁drags	-10.9511
▁tra	-10.9524
▁ross	-10.9524
▁tre	-10.9527
▁beg	-10.9531
▁carol	-10.9532
▁spots	-10.9534
▁clint	-10.9538
▁1)	-10.9539
▁distance	-10.9541
▁eerie	-10.9541
▁precious	-10.9542
hole	-10.9544
▁sandra	-10.9544
▁emily	-10.9545
▁kirk	-10.9545
▁insulting	-10.9546
▁stops	-10.9549
▁maker	-10.9554
▁cia	-10.9555
▁pointed	-10.9561
▁handful	-10.9567
bert	-10.9569
▁stole	-10.958
]	-10.958
’	-10.958
▁easier	-10.958
▁eccentric	-10.958
▁hudson	-10.958
▁transition	-10.958
▁austen	-10.958
▁racial	-10.958
▁poison	-10.9581
▁leslie	-10.9582
▁earn	-10.9583
▁hype	-10.9584
ong	-10.9588
▁checking	-10.9591
▁stinker	-10.9594
ates	-10.9595
▁shorts	-10.9602
▁emma	-10.9614
▁winter	-10.9619
▁fifteen	-10.962
▁horrid	-10.962
▁alexander	-10.962
▁slick	-10.962
▁mummy	-10.962
▁sidekick	-10.962
here	-10.9621
nate	-10.9624
kill	-10.9625
▁attracted	-10.9634
▁selling	-10.9637
▁farce	-10.9643
▁vague	-10.9647
▁ol	-10.9657
ching	-10.9657
▁typically	-10.9659
▁incoherent	-10.966
▁kubrick	-10.966
▁obscure	-10.966
▁marine	-10.9661
▁pulp	-10.9661
▁titles	-10.9662
▁lucy	-10.967
tz	-10.967
▁mistaken	-10.9672
▁aged	-10.9678
▁kicks	-10.9679
▁rocket	-10.9683
▁pur	-10.9684
▁hoped	-10.9687
▁mile	-10.9688
fl	-10.9689
▁grows	-10.9693
▁belong	-10.9697
▁disappoint	-10.9699
▁transfer	-10.9699
▁resolution	-10.9699
▁threw	-10.9699
▁generous	-10.9699
▁2005	-10.97
▁assault	-10.97
▁tribe	-10.9701
▁sophisticated	-10.9701
▁flu	-10.9703
its	-10.9704
▁accused	-10.9705
▁selfish	-10.9709
▁corpse	-10.9711
rick	-10.9716
▁report	-10.9716
▁shall	-10.9719
▁resist	-10.9722
▁lol	-10.9724
▁tremendous	-10.9726
mu	-10.9733
friend	-10.9733
▁loser	-10.9736
▁sy	-10.9738
▁album	-10.9739
▁helicopter	-10.9739
▁terrifying	-10.9739
▁kudos	-10.9739
▁virus	-10.974
ison	-10.9747
▁snakes	-10.9748
50	-10.9757
▁requires	-10.9762
▁encounters	-10.9767
existent	-10.9768
▁performing	-10.9768
little	-10.9769
▁journalist	-10.9775
▁shoots	-10.9775
▁receive	-10.9775
▁rick	-10.9778
▁chicago	-10.978
▁altogether	-10.978
than	-10.9781
▁24	-10.9785
▁failing	-10.9787
wit	-10.9789
▁noise	-10.979
▁goal	-10.9791
▁eve	-10.9795
▁chases	-10.9796
ep	-10.9798
high	-10.9801
▁trans	-10.9801
▁breasts	-10.9804
▁suspects	-10.9806
▁spare	-10.981
▁creators	-10.981
board	-10.9813
ez	-10.9814
▁stated	-10.9825
ane	-10.9827
▁nazis	-10.9829
▁harm	-10.9833
▁lin	-10.9836
▁interaction	-10.9837
▁crush	-10.9843
▁den	-10.9849
▁jealous	-10.9851
▁1930	-10.9853
▁packed	-10.9855
▁grab	-10.9859
▁electric	-10.9859
▁squad	-10.986
▁vicious	-10.9861
▁pride	-10.9861
spoiler	-10.9868
▁fitting	-10.9868
▁angeles	-10.9869
▁cow	-10.9873
type	-10.9876
▁engaged	-10.9876
▁discovery	-10.9886
▁pu	-10.989
▁wire	-10.9892
▁indians	-10.9894
▁gentle	-10.9897
▁musicals	-10.99
▁raped	-10.99
mann	-10.99
▁jar	-10.9905
illa	-10.9911
▁photographer	-10.9914
▁cameos	-10.9919
▁bullet	-10.9919
ue	-10.992
▁intrigue	-10.9924
▁reasonable	-10.9934
stop	-10.9936
▁daughters	-10.9937
▁chuckle	-10.9939
hour	-10.9939
▁symbol	-10.994
▁godfather	-10.9943
▁frankenstein	-10.9943
▁symbolism	-10.9943
▁sadistic	-10.9946
▁countless	-10.9946
▁aid	-10.9952
▁tons	-10.9959
▁occur	-10.9959
was	-10.9969
▁explosions	-10.9977
worthy	-10.998
▁brilliance	-10.9983
▁germans	-10.9985
▁jake	-10.9985
▁loyal	-10.9985
▁bust	-10.999
▁bay	-10.9993
▁jumping	-10.9995
▁argument	-11.0002
▁landscape	-11.0002
▁transform	-11.0003
then	-11.0004
▁factory	-11.0005
▁pulling	-11.0011
because	-11.0015
▁tie	-11.0018
▁loosely	-11.002
▁discuss	-11.0021
▁documentaries	-11.0024
▁1/2	-11.0025
rock	-11.0026
ight	-11.0028
▁myth	-11.0035
▁associated	-11.0037
▁lifestyle	-11.0037
▁rogers	-11.004
▁shortly	-11.0042
▁watches	-11.0048
▁luc	-11.005
▁shoes	-11.0053
▁burning	-11.0059
▁homosexual	-11.0064
▁phrase	-11.0067
▁inspector	-11.0067
▁sport	-11.0068
▁wannabe	-11.0068
▁arrive	-11.0068
▁ob	-11.0069
▁elderly	-11.0072
most	-11.0079
▁bold	-11.008
▁allowing	-11.0081
▁highlights	-11.0086
▁$1	-11.0092
▁daring	-11.0096
▁mat	-11.01
▁prize	-11.0102
▁instinct	-11.0107
▁menacing	-11.0107
▁souls	-11.0108
▁trace	-11.0109
▁er	-11.0111
▁beaten	-11.0115
▁fx	-11.0116
▁demands	-11.0117
▁surrounded	-11.0118
▁cried	-11.012
ction	-11.0121
movies	-11.0128
▁mild	-11.0128
▁dust	-11.0132
▁definite	-11.0135
▁pla	-11.0146
▁neil	-11.0146
▁francis	-11.0148
▁believing	-11.0148
▁survival	-11.0148
▁bruno	-11.0149
▁smoking	-11.0151
▁fancy	-11.0157
glo	-11.0162
▁icon	-11.017
▁occurs	-11.0172
ski	-11.0174
▁hysterical	-11.0177
▁subsequent	-11.0177
▁evident	-11.0177
▁commercials	-11.0178
▁dim	-11.018
▁notion	-11.0181
▁inventive	-11.0191
▁individuals	-11.0193
▁fist	-11.0197
▁2000	-11.02
▁photographed	-11.0201
▁porno	-11.0205
▁5.	-11.0206
▁picking	-11.021
pper	-11.021
▁strike	-11.0215
▁twin	-11.022
▁nerd	-11.0224
ple	-11.0227
box	-11.0227
▁russia	-11.0228
▁providing	-11.0232
▁splendid	-11.0232
▁2006	-11.0232
▁luckily	-11.0233
▁frost	-11.0234
▁rabbit	-11.0234
▁lend	-11.0236
▁slip	-11.0237
▁clues	-11.0237
▁qua	-11.024
▁recording	-11.0244
▁possessed	-11.0247
▁detailed	-11.0248
▁encourage	-11.0256
▁jewel	-11.026
▁spoiled	-11.027
tom	-11.0272
▁graham	-11.0275
▁passionate	-11.0276
▁hideous	-11.0276
▁wine	-11.0279
▁sweat	-11.0279
▁duck	-11.0281
▁reasonably	-11.0283
▁directorial	-11.0287
▁accomplished	-11.0288
▁pleased	-11.0301
▁conventional	-11.0304
▁shadows	-11.0306
▁franco	-11.0306
▁legal	-11.0307
view	-11.0313
▁21	-11.0315
▁reactions	-11.0318
▁hopper	-11.0318
▁stanley	-11.0318
▁frustrated	-11.0319
▁menace	-11.0319
▁thrills	-11.032
hand	-11.032
tar	-11.0321
▁mann	-11.0325
▁blake	-11.0326
minded	-11.0326
▁walken	-11.0326
ston	-11.0338
▁reed	-11.0338
ddle	-11.0338
stone	-11.0339
▁photo	-11.0347
▁saves	-11.0354
▁ci	-11.0357
yo	-11.0358
▁narrator	-11.0359
▁returned	-11.036
▁liking	-11.0361
▁grasp	-11.0361
▁abilities	-11.0361
▁cliff	-11.0362
▁albeit	-11.0363
▁rely	-11.0365
▁meaningless	-11.0368
▁nun	-11.0371
▁sentence	-11.0371
▁thumbs	-11.0374
▁carter	-11.0375
▁worthless	-11.0378
▁complaint	-11.0382
net	-11.039
▁superbly	-11.0391
▁iii	-11.0394
ches	-11.0397
woman	-11.0397
▁celluloid	-11.0402
▁pseudo	-11.0402
▁wrestling	-11.0402
▁wallace	-11.0402
▁charismatic	-11.0403
▁..	-11.0403
▁splatter	-11.0403
▁mon	-11.0404
▁timeless	-11.0404
▁wheel	-11.0404
▁transformation	-11.0405
cast	-11.041
▁unintentionally	-11.0413
lk	-11.0415
▁canada	-11.0418
▁brit	-11.0419
far	-11.0425
▁pleasantly	-11.0427
used	-11.0431
take	-11.0438
▁improve	-11.0442
▁poverty	-11.0445
▁translation	-11.0445
▁worried	-11.0445
▁buried	-11.0445
▁grandmother	-11.0445
▁carrey	-11.0445
▁affection	-11.0449
▁overwhelming	-11.0449
▁attached	-11.0449
god	-11.0451
▁continued	-11.0452
▁nearby	-11.0452
▁para	-11.0454
▁demand	-11.0457
▁fonda	-11.0459
▁aim	-11.0461
bie	-11.0463
▁aimed	-11.0465
guy	-11.0466
▁ranks	-11.047
▁bite	-11.0475
▁dire	-11.0476
▁comfort	-11.0486
▁distant	-11.0489
▁antics	-11.0492
▁travels	-11.0493
▁brando	-11.0493
pan	-11.0497
ify	-11.0497
▁linda	-11.0498
▁crimes	-11.0499
▁arc	-11.05
▁tortured	-11.0501
ory	-11.0501
core	-11.0504
▁waters	-11.0504
ama	-11.0506
hoo	-11.0519
▁painting	-11.0522
eyed	-11.0524
▁sar	-11.0527
▁represents	-11.0527
▁contrary	-11.0531
▁disjointed	-11.0531
▁swedish	-11.0531
▁kitchen	-11.0531
▁ireland	-11.0532
▁hick	-11.0533
▁escaped	-11.0534
▁duty	-11.0534
▁2/10	-11.0535
▁solo	-11.0536
▁drunken	-11.0539
▁extended	-11.0539
▁strikes	-11.055
▁pushed	-11.0556
hl	-11.0558
▁bump	-11.0559
▁burned	-11.0563
col	-11.0565
▁gate	-11.0566
▁vast	-11.0569
▁wondered	-11.0571
ena	-11.0575
▁depression	-11.0575
▁madonna	-11.0575
▁rendition	-11.0575
▁university	-11.0575
▁causing	-11.0575
▁bathroom	-11.0575
▁habit	-11.0576
▁planning	-11.0576
▁matthew	-11.0577
▁admittedly	-11.0581
▁afterwards	-11.0581
▁mars	-11.0587
▁jobs	-11.0587
▁hitting	-11.0587
▁idiots	-11.0589
ella	-11.0598
▁thrillers	-11.0602
▁boom	-11.0607
▁warrior	-11.0609
ik	-11.0613
▁stronger	-11.0614
lor	-11.0617
▁aka	-11.0618
▁museum	-11.0619
▁rural	-11.0619
▁servant	-11.062
▁inspiring	-11.062
▁ironically	-11.062
▁secretary	-11.0622
▁temple	-11.0624
▁reflection	-11.0624
▁pressure	-11.0626
40	-11.0626
▁childish	-11.0631
▁duo	-11.0632
▁arrested	-11.0632
▁dialogs	-11.0634
▁stooges	-11.0637
iff	-11.0638
lee	-11.0643
▁dump	-11.0646
▁*****	-11.0651
▁boll	-11.0655
▁respond	-11.0662
▁crystal	-11.0663
▁murray	-11.0663
▁amanda	-11.0663
▁involvement	-11.0663
▁scientific	-11.0664
▁winds	-11.0667
▁strictly	-11.0669
▁drivel	-11.0672
▁displays	-11.0672
▁resembles	-11.0673
▁affected	-11.0678
gro	-11.0681
▁gut	-11.0683
▁tunes	-11.0684
▁teaching	-11.0689
fight	-11.0689
▁damage	-11.0689
▁pearl	-11.0689
▁segments	-11.069
▁feed	-11.069
paced	-11.0694
thriller	-11.0696
▁andrew	-11.0703
▁colonel	-11.0706
▁juvenile	-11.0706
▁possibility	-11.0706
▁coincidence	-11.0707
▁altman	-11.0707
▁alternate	-11.0707
▁saint	-11.0707
▁lawrence	-11.0708
▁claire	-11.0708
▁spooky	-11.071
▁hanks	-11.071
▁yard	-11.0713
▁trio	-11.0715
▁terrorist	-11.0716
master	-11.0718
▁les	-11.072
▁tar	-11.072
▁doors	-11.0723
▁ridiculously	-11.073
▁fest	-11.073
▁rage	-11.0731
▁angela	-11.0731
▁ch	-11.0733
▁cases	-11.0735
▁cho	-11.0738
▁doc	-11.0739
▁parallel	-11.0744
▁ticket	-11.0745
▁ku	-11.0745
▁preview	-11.0746
▁enters	-11.0748
▁argento	-11.0751
▁ambition	-11.0751
▁cusack	-11.0751
▁generic	-11.0751
▁furthermore	-11.0752
▁comfortable	-11.0752
▁gradually	-11.0753
▁offended	-11.0769
▁delivering	-11.0771
▁recover	-11.0779
▁currently	-11.0783
▁port	-11.079
drama	-11.0791
▁dentist	-11.0795
▁estate	-11.0796
▁airplane	-11.0798
mal	-11.0801
▁listed	-11.0804
▁gus	-11.0804
▁prisoners	-11.0804
matic	-11.0806
▁auto	-11.0807
▁willis	-11.0813
▁horn	-11.0817
death	-11.083
▁folk	-11.0838
▁guitar	-11.084
▁implausible	-11.084
▁streep	-11.084
▁devoid	-11.084
▁slice	-11.084
▁foul	-11.0842
▁kidding	-11.0844
▁bam	-11.0849
▁metaphor	-11.0851
vert	-11.0851
▁cared	-11.0855
▁tame	-11.0863
▁establish	-11.0863
▁dimension	-11.0867
▁fed	-11.0868
▁thrill	-11.0876
pu	-11.0878
vision	-11.0879
cap	-11.088
anne	-11.0882
▁illegal	-11.0885
▁campbell	-11.0885
▁conspiracy	-11.0885
▁chaos	-11.0886
▁tracy	-11.0886
▁valley	-11.0886
▁exaggerated	-11.0887
▁lyrics	-11.0889
▁midnight	-11.0889
▁morality	-11.089
▁mcc	-11.0894
▁za	-11.0899
▁glenn	-11.09
▁nu	-11.0917
tric	-11.0926
▁emperor	-11.093
▁emphasis	-11.093
▁unwatchable	-11.093
▁gabriel	-11.093
form	-11.0931
▁operation	-11.0931
▁lucas	-11.0933
ben	-11.0933
▁hardcore	-11.0934
▁tad	-11.0934
wait	-11.0947
▁widow	-11.0948
▁sadness	-11.0956
▁fired	-11.0963
▁quarter	-11.0975
▁wil	-11.0975
▁mario	-11.0976
▁dorothy	-11.0976
▁todd	-11.0976
▁lang	-11.0981
uk	-11.0981
▁steel	-11.0981
▁videos	-11.0983
▁advise	-11.0991
▁traveling	-11.0994
uch	-11.0998
▁tourist	-11.1
▁engage	-11.1001
▁blond	-11.1002
▁improved	-11.1002
▁purchase	-11.1002
und	-11.1003
▁battles	-11.1005
▁tender	-11.1007
▁bears	-11.1011
▁aforementioned	-11.102
▁synopsis	-11.102
▁unbelievably	-11.102
▁communist	-11.1022
▁slightest	-11.1022
▁randy	-11.1022
▁50'	-11.1023
lot	-11.1027
▁chicken	-11.1028
19	-11.1033
▁overlooked	-11.1035
▁removed	-11.1035
▁cd	-11.1045
▁vice	-11.1052
▁hart	-11.1058
▁glorious	-11.1066
▁griffith	-11.1066
▁solution	-11.1066
▁popcorn	-11.1066
▁proceedings	-11.1066
▁dedicated	-11.1068
▁cinderella	-11.1068
▁option	-11.1071
▁devoted	-11.1072
still	-11.1083
▁doo	-11.1083
tty	-11.1091
▁ali	-11.1092
▁kinds	-11.1097
roll	-11.1098
▁beats	-11.1098
▁relative	-11.1101
▁walls	-11.1103
▁nut	-11.1104
▁kat	-11.1105
▁prisoner	-11.1107
▁pale	-11.1112
▁branagh	-11.1112
▁abysmal	-11.1112
▁conclude	-11.1112
▁isolated	-11.1112
▁unfair	-11.1113
▁prop	-11.1121
▁fer	-11.1121
gun	-11.1129
▁flip	-11.1142
▁killings	-11.1144
▁builds	-11.1145
▁errors	-11.1148
▁reached	-11.1153
▁tip	-11.1154
▁des	-11.1155
200	-11.1156
▁hearts	-11.1158
▁arrogant	-11.1158
▁coffee	-11.1158
▁frustration	-11.1158
▁unbearable	-11.1158
▁yesterday	-11.1158
▁rubber	-11.1159
▁dutch	-11.116
▁airport	-11.116
▁sho	-11.1168
▁quit	-11.1177
ute	-11.1183
▁ranger	-11.1184
▁smooth	-11.1191
▁alter	-11.1195
alien	-11.1195
sure	-11.1195
▁wrap	-11.1204
▁bean	-11.1204
▁absence	-11.1204
▁hamilton	-11.1204
▁margaret	-11.1204
▁website	-11.1204
▁sloppy	-11.1204
▁population	-11.1205
▁jeremy	-11.1206
▁neo	-11.1206
▁subtlety	-11.1208
▁represent	-11.1215
▁oscars	-11.1218
▁staying	-11.1219
▁bates	-11.122
▁dinosaurs	-11.1224
▁fisher	-11.1226
▁divorce	-11.1233
▁pants	-11.1234
▁borrow	-11.1234
▁hawk	-11.1239
▁influenced	-11.1245
ano	-11.1248
▁raj	-11.1249
▁shine	-11.125
▁rub	-11.125
super	-11.1251
▁lincoln	-11.1251
▁predecessor	-11.1251
▁primarily	-11.1251
▁occurred	-11.1251
▁hatred	-11.1252
▁psychotic	-11.1253
▁yell	-11.1254
kar	-11.1257
▁disturbed	-11.1258
▁murderous	-11.1259
▁bowl	-11.126
▁distracting	-11.1264
▁thoughtful	-11.1267
▁7.	-11.1269
▁intrigued	-11.1271
▁dramas	-11.128
other	-11.1283
robert	-11.1289
shot	-11.1293
▁stark	-11.1294
pen	-11.1297
▁dignity	-11.1298
▁recognition	-11.1298
▁mixture	-11.1298
gn	-11.1298
▁andy	-11.1299
▁sandler	-11.1299
▁leap	-11.1299
▁secondly	-11.13
▁scripted	-11.1302
come	-11.1302
▁explosion	-11.1304
tti	-11.1305
▁overdone	-11.1311
▁shining	-11.1313
▁doomed	-11.1315
▁officers	-11.1317
▁performer	-11.1318
▁politically	-11.1321
vic	-11.1323
hot	-11.1324
▁instant	-11.1332
▁draws	-11.1332
▁stereotype	-11.1335
press	-11.1337
▁butcher	-11.1338
▁favour	-11.1344
▁giallo	-11.1345
▁gimmick	-11.1345
▁judging	-11.1345
▁simplistic	-11.1345
stage	-11.1345
▁crawl	-11.1345
▁derek	-11.1345
▁buddies	-11.1345
▁damme	-11.1346
▁labor	-11.1354
win	-11.1364
▁highest	-11.1365
▁conversations	-11.1366
▁hay	-11.1367
▁classical	-11.1367
▁goodness	-11.1367
▁closed	-11.1378
▁misses	-11.1379
▁milk	-11.1386
▁alternative	-11.1392
▁beneath	-11.1392
▁craig	-11.1392
▁nervous	-11.1392
▁miserable	-11.1392
▁yellow	-11.1394
▁cab	-11.1395
▁wi	-11.1399
▁=	-11.14
▁eli	-11.1402
mb	-11.1403
ments	-11.1414
ick	-11.1417
▁bullets	-11.1419
elle	-11.142
about	-11.1432
▁sen	-11.1432
▁artificial	-11.1439
▁clumsy	-11.1439
▁frustrating	-11.1439
▁philosophy	-11.1439
▁quinn	-11.1439
▁100%	-11.144
▁abc	-11.144
▁objective	-11.1441
▁inject	-11.1442
▁ought	-11.1442
▁endure	-11.1443
▁ned	-11.1444
▁similarly	-11.1445
▁areas	-11.1446
▁threatening	-11.1447
▁frankie	-11.1447
▁inappropriate	-11.1454
▁progress	-11.1462
▁owe	-11.1463
▁staged	-11.1466
any	-11.1468
▁hy	-11.1472
▁harder	-11.1474
▁unfold	-11.1478
▁nights	-11.1481
ub	-11.1483
pr	-11.1486
▁motives	-11.1487
▁captivating	-11.1487
▁psychiatrist	-11.1487
▁tiger	-11.1487
▁protest	-11.1488
▁specifically	-11.1488
▁planned	-11.1488
▁fade	-11.149
▁robbery	-11.1491
▁cheek	-11.1493
▁reduced	-11.1493
fo	-11.1499
▁headed	-11.1502
▁ti	-11.1506
▁fears	-11.1517
▁enormous	-11.1521
▁mall	-11.1522
ude	-11.1523
▁spark	-11.1524
▁involve	-11.1528
▁lips	-11.1532
lip	-11.1534
boo	-11.1534
▁fur	-11.1534
▁detract	-11.1534
▁coherent	-11.1535
▁convoluted	-11.1535
▁manhattan	-11.1535
▁producing	-11.1535
▁mafia	-11.1535
▁statue	-11.1535
▁alfred	-11.1535
▁poetry	-11.1535
▁empire	-11.1536
▁venture	-11.1536
▁resemblance	-11.1536
▁edition	-11.1537
▁recorded	-11.1539
mad	-11.1543
hal	-11.1544
▁rita	-11.1545
▁troma	-11.1549
▁blues	-11.1556
▁commented	-11.1559
▁notably	-11.1561
▁rights	-11.1567
▁signs	-11.1573
lie	-11.1574
▁riot	-11.1574
▁recognized	-11.1578
▁screams	-11.158
▁comm	-11.158
▁spider	-11.1581
▁explaining	-11.1582
▁contest	-11.1582
▁principle	-11.1583
▁recruit	-11.1583
▁reunion	-11.1583
▁suspicious	-11.1583
▁terry	-11.1583
▁unoriginal	-11.1584
▁eighties	-11.1585
▁existed	-11.1587
burg	-11.1587
▁ce	-11.1591
▁nail	-11.1599
▁clip	-11.16
▁yu	-11.1607
▁poetic	-11.1607
▁relies	-11.1612
cker	-11.1617
▁blatant	-11.1618
paul	-11.1619
▁kurt	-11.163
▁crucial	-11.1631
▁traffic	-11.1632
▁composer	-11.1633
▁reaches	-11.1641
▁ski	-11.1645
af	-11.1648
▁scarlett	-11.1656
ched	-11.1668
▁observation	-11.1679
▁intimate	-11.168
▁thunder	-11.168
▁excessive	-11.168
▁[	-11.168
▁region	-11.1682
▁rot	-11.1684
▁tele	-11.1685
▁clothing	-11.169
▁agreed	-11.169
bal	-11.1691
▁sticks	-11.1694
put	-11.1694
▁exposed	-11.1696
▁rope	-11.1701
▁collect	-11.1701
▁mode	-11.1705
▁tin	-11.1706
▁monk	-11.1709
▁darker	-11.1709
▁slaughter	-11.171
▁interact	-11.1712
▁differences	-11.1714
▁undoubtedly	-11.1728
▁depressed	-11.1728
▁martha	-11.1728
▁masters	-11.1729
▁justify	-11.1729
▁glover	-11.1731
!!!!!	-11.1732
▁runner	-11.1738
▁closet	-11.1741
▁method	-11.1743
▁movements	-11.1744
▁passes	-11.1747
▁cards	-11.175
▁doom	-11.1751
▁refer	-11.1752
▁scratch	-11.1757
power	-11.1767
special	-11.1767
▁lean	-11.1769
▁cinematographer	-11.1777
▁enemies	-11.1777
▁innovative	-11.1777
▁primary	-11.1778
▁presumably	-11.1779
▁roof	-11.178
▁provoking	-11.1786
......	-11.1792
▁dee	-11.1795
▁solely	-11.1795
▁buster	-11.1797
▁tool	-11.1799
los	-11.1799
▁prepare	-11.1809
thing	-11.1809
▁succeeded	-11.1809
▁casual	-11.1813
uri	-11.1819
rich	-11.1822
▁education	-11.1823
book	-11.1824
▁vegas	-11.1824
▁projects	-11.1826
▁trademark	-11.1827
▁choreography	-11.1827
▁hamlet	-11.183
▁countryside	-11.183
▁wound	-11.1832
▁immensely	-11.1833
▁kay	-11.1837
▁decisions	-11.1842
▁catches	-11.1845
cop	-11.1849
▁titled	-11.1851
ology	-11.1855
▁turner	-11.1856
cious	-11.1859
▁cats	-11.1867
▁agents	-11.1867
▁programme	-11.1869
▁comparing	-11.1876
▁despair	-11.1876
▁elegant	-11.1876
▁junior	-11.1876
▁curtis	-11.1876
▁philosophical	-11.1877
▁bonus	-11.1879
▁limits	-11.1882
▁keen	-11.1882
▁organ	-11.1885
▁whit	-11.1887
▁ph	-11.1888
▁consistently	-11.1889
pal	-11.1892
▁messages	-11.1896
▁marks	-11.1905
▁las	-11.1905
▁stu	-11.1907
two	-11.1909
▁imagined	-11.1912
▁replace	-11.1912
▁insist	-11.1912
▁witnessed	-11.1912
▁pattern	-11.1926
▁exotic	-11.1926
▁doug	-11.1926
▁vocal	-11.1926
▁punishment	-11.1926
▁elephant	-11.1928
lim	-11.193
cher	-11.193
▁copies	-11.1933
ken	-11.1935
▁alert	-11.1939
▁secrets	-11.1944
▁slave	-11.1947
▁vo	-11.1952
mark	-11.1953
▁attract	-11.1954
▁predict	-11.1955
worth	-11.1956
▁depicts	-11.1957
itz	-11.1958
▁vivid	-11.1963
▁unintentional	-11.1963
▁confess	-11.1966
▁covers	-11.197
▁sue	-11.197
▁honesty	-11.1973
▁introduces	-11.1974
▁nicole	-11.1977
▁flies	-11.1979
▁bourne	-11.1979
both	-11.1982
▁label	-11.1983
▁gear	-11.1985
▁cox	-11.1991
▁mock	-11.2011
▁package	-11.2011
ew	-11.2012
ann	-11.2012
▁unfolds	-11.2012
▁adequate	-11.2013
▁consistent	-11.2015
piece	-11.2015
▁homeless	-11.202
kel	-11.202
▁equipment	-11.2026
▁mistress	-11.2026
▁fanatic	-11.2027
▁smell	-11.2027
▁wig	-11.2028
▁ji	-11.2037
▁uneven	-11.2042
▁explored	-11.205
▁guarantee	-11.2059
▁cue	-11.2061
maker	-11.2061
cal	-11.2066
>	-11.2066
tte	-11.2067
free	-11.2067
▁brains	-11.2071
▁leonard	-11.2073
handed	-11.2076
▁accompanied	-11.2077
▁bargain	-11.2077
▁compliment	-11.2077
▁satisfied	-11.2077
▁falk	-11.2077
▁wrapped	-11.2077
▁stellar	-11.2079
▁tracks	-11.208
▁ease	-11.2083
▁constructed	-11.2088
▁active	-11.2089
▁_	-11.2094
ification	-11.2097
▁macy	-11.2098
▁saga	-11.2108
▁handed	-11.2109
▁ruth	-11.211
▁sheen	-11.2114
▁financial	-11.2114
▁frequent	-11.2115
▁flag	-11.2119
▁bette	-11.2121
▁sur	-11.2121
▁sketch	-11.2123
thank	-11.2124
▁global	-11.2127
▁horrifying	-11.2127
▁tam	-11.2128
rob	-11.213
▁norris	-11.213
▁fingers	-11.2131
rge	-11.2133
▁mason	-11.2134
▁illness	-11.2136
▁ruins	-11.2136
▁fields	-11.2139
ack	-11.2142
▁maniac	-11.2146
▁citizen	-11.2147
▁holy	-11.2158
▁aging	-11.2158
▁address	-11.2159
▁exit	-11.2161
▁fooled	-11.2167
▁wonders	-11.2168
▁smaller	-11.2171
▁loads	-11.2173
name	-11.2177
▁muslim	-11.2178
▁tramp	-11.2179
▁defense	-11.2179
▁keith	-11.2181
▁robinson	-11.2182
▁switch	-11.2187
▁wore	-11.2191
▁cake	-11.2191
▁cheating	-11.2198
▁app	-11.2201
mie	-11.2201
▁psychic	-11.2203
cc	-11.2206
▁contribute	-11.2212
▁ger	-11.2212
▁chop	-11.2214
mme	-11.2218
▁hung	-11.2221
last	-11.2223
▁user	-11.2223
▁cagney	-11.223
▁grotesque	-11.223
▁seduce	-11.223
▁debate	-11.223
▁similarities	-11.2233
esh	-11.2234
aunt	-11.2234
▁focusing	-11.2234
▁tick	-11.2235
▁eaten	-11.2236
▁carrie	-11.2236
▁terrorists	-11.2238
▁myers	-11.2239
▁cliche	-11.2241
ef	-11.2243
rain	-11.2245
nia	-11.2248
▁trees	-11.2249
ux	-11.2256
bing	-11.2256
▁props	-11.2257
▁dinosaur	-11.226
▁35	-11.2261
▁puzzle	-11.2263
▁inspire	-11.2263
▁emerge	-11.2264
▁models	-11.2264
▁farmer	-11.2276
▁responsibility	-11.2281
▁mutant	-11.2281
▁fruit	-11.2281
▁blew	-11.2283
▁composed	-11.2284
awful	-11.2284
▁kicked	-11.2285
▁mayor	-11.2285
tta	-11.2286
▁considerable	-11.2291
▁gam	-11.2291
▁exploit	-11.2298
blood	-11.2305
self	-11.2312
▁climb	-11.2312
▁superhero	-11.2313
▁partly	-11.2314
bill	-11.2315
▁pushing	-11.2316
▁lil	-11.2318
char	-11.232
20	-11.233
▁useful	-11.2331
▁ears	-11.2331
▁cassavetes	-11.2333
▁florida	-11.2333
▁incompetent	-11.2333
▁volume	-11.2333
▁shelf	-11.2333
▁versus	-11.2333
▁swim	-11.2333
▁eastern	-11.2335
▁sullivan	-11.2335
▁garbo	-11.2335
makers	-11.2345
▁marion	-11.2345
▁hopeless	-11.2347
▁inane	-11.2347
▁convincingly	-11.2352
▁trained	-11.2353
til	-11.2356
▁rocks	-11.236
igan	-11.2363
▁alike	-11.237
▁wealth	-11.2375
▁masterful	-11.2376
▁edit	-11.2378
▁sm	-11.238
sex	-11.238
▁workers	-11.2383
▁subjects	-11.2385
}	-11.2385
▁increase	-11.2385
▁nostalgia	-11.2385
▁shirley	-11.2385
▁streisand	-11.2385
▁retain	-11.2385
▁elvis	-11.2386
▁custer	-11.2386
▁downhill	-11.2388
▁barney	-11.2388
▁confrontation	-11.2389
ob	-11.239
vol	-11.2391
▁mankind	-11.2392
▁rising	-11.2393
▁dozens	-11.2393
▁dating	-11.2396
30	-11.2399
▁overrated	-11.2405
▁um	-11.2414
▁eager	-11.2424
▁affect	-11.2427
▁kidnap	-11.2436
comprehensible	-11.2437
▁plausible	-11.2437
▁survived	-11.2437
dark	-11.2438
▁rotten	-11.2438
▁seventies	-11.2438
gin	-11.2444
▁banal	-11.2444
bla	-11.2446
▁spa	-11.2457
▁forty	-11.2461
▁potentially	-11.2462
▁prey	-11.2465
fan	-11.2471
▁phillip	-11.2476
iling	-11.2483
▁painted	-11.2486
▁goof	-11.2489
á	-11.249
▁campaign	-11.249
▁creativity	-11.249
▁imitation	-11.249
▁absent	-11.249
▁jordan	-11.249
▁flood	-11.249
▁hollow	-11.249
▁nicholson	-11.2491
▁wont	-11.2491
▁francisco	-11.2492
▁davies	-11.2492
▁marty	-11.2494
▁suited	-11.2495
anna	-11.2496
miss	-11.25
▁tonight	-11.2502
ld	-11.2507
▁fra	-11.2508
note	-11.2509
▁centre	-11.251
▁describes	-11.2519
best	-11.2523
hara	-11.2524
▁dose	-11.2525
▁axe	-11.2534
headed	-11.2538
▁spoke	-11.2539
▁displayed	-11.254
▁survivors	-11.2543
▁gadget	-11.2543
▁monologue	-11.2543
▁pitiful	-11.2543
▁agenda	-11.2543
▁dread	-11.2544
▁mtv	-11.2544
▁edgar	-11.2545
▁developing	-11.2546
▁vol	-11.255
▁deliberately	-11.2551
uous	-11.2552
▁deny	-11.256
▁cheated	-11.2561
▁cannon	-11.2561
▁arrived	-11.2566
▁anyways	-11.2567
hol	-11.2568
qu	-11.257
▁notes	-11.2575
▁fre	-11.2584
▁chip	-11.2589
▁custom	-11.2594
▁mail	-11.2595
▁adorable	-11.2596
▁bronson	-11.2596
▁miyazaki	-11.2596
▁taught	-11.2596
▁illogical	-11.2596
▁baldwin	-11.2596
▁revolutionary	-11.2597
▁blowing	-11.2598
▁fever	-11.26
ished	-11.26
▁historically	-11.2602
▁glasses	-11.2603
▁mountains	-11.261
ese	-11.2612
▁combine	-11.2618
▁formulaic	-11.2621
▁mentioning	-11.2625
▁addict	-11.2627
▁han	-11.2628
▁smash	-11.2629
▁hilariously	-11.2635
▁brutally	-11.2639
▁trend	-11.2641
sch	-11.2641
▁sale	-11.2642
▁contained	-11.2648
based	-11.2648
▁ny	-11.265
▁recommendation	-11.265
▁riveting	-11.265
▁samuel	-11.265
▁stilted	-11.265
▁advertising	-11.265
▁anchor	-11.265
▁feast	-11.2651
▁disappeared	-11.2667
▁commander	-11.267
dia	-11.2681
▁offend	-11.2684
▁classes	-11.2685
▁pursue	-11.2686
▁occasion	-11.2686
eur	-11.2687
▁noted	-11.2688
▁josh	-11.2695
▁subplots	-11.27
▁odds	-11.2701
cool	-11.2703
▁embrace	-11.2703
▁enterprise	-11.2703
▁lemmon	-11.2703
▁understated	-11.2703
▁garfield	-11.2704
▁underlying	-11.2704
▁twelve	-11.2704
▁miracle	-11.2705
▁armed	-11.2706
▁cream	-11.2706
▁progresses	-11.2708
▁wagon	-11.271
▁bud	-11.2711
enti	-11.2728
▁wander	-11.2728
faced	-11.2728
▁romp	-11.2736
▁pretending	-11.2745
funny	-11.2745
▁map	-11.2747
▁outfit	-11.2748
▁parties	-11.2751
▁coat	-11.2753
▁qui	-11.2755
▁ignorant	-11.2757
▁obtain	-11.2757
▁sleaze	-11.2757
▁vengeance	-11.2757
▁spiral	-11.2757
▁wo	-11.2758
▁improvement	-11.276
▁perry	-11.2762
▁kris	-11.2762
stein	-11.2764
▁leo	-11.2767
▁wandering	-11.2779
";	-11.278
▁awe	-11.2782
beat	-11.2783
▁earned	-11.2783
▁buildings	-11.2785
▁resemble	-11.2792
▁define	-11.2796
▁nomination	-11.2802
▁nightmares	-11.2805
▁com	-11.2806
▁irrelevant	-11.2812
▁embarrassment	-11.2812
▁2004	-11.2812
▁schlock	-11.2812
▁champion	-11.2812
bon	-11.2813
▁bedroom	-11.2813
(..	-11.2814
▁sto	-11.2814
▁corruption	-11.2814
▁rude	-11.2815
▁niro	-11.2815
esque	-11.2816
▁indicate	-11.2818
▁alongside	-11.282
▁suitable	-11.2822
▁wounded	-11.2832
▁yelling	-11.2837
▁matches	-11.2838
▁stevens	-11.2844
▁hop	-11.2849
post	-11.2851
▁dimensional	-11.2853
▁firm	-11.2853
▁der	-11.2857
▁comics	-11.2863
▁sons	-11.2863
▁ingredients	-11.2865
met	-11.2866
▁grudge	-11.2866
▁inferior	-11.2866
▁jeffrey	-11.2866
▁pursuit	-11.2867
▁vein	-11.2867
▁karloff	-11.2867
▁tyler	-11.2868
▁rebel	-11.2869
▁claude	-11.2869
▁sailor	-11.2869
▁leigh	-11.2869
▁cad	-11.2871
▁disappear	-11.2873
aging	-11.2877
▁gangsters	-11.2878
▁borrowed	-11.2888
▁pour	-11.2904
▁chased	-11.2905
▁dirt	-11.2912
▁boil	-11.2917
▁grip	-11.2919
▁desired	-11.292
pot	-11.2921
▁access	-11.2921
▁communicate	-11.2921
▁swallow	-11.2921
▁fought	-11.2922
▁huston	-11.2922
▁trashy	-11.2923
▁safety	-11.2924
▁scope	-11.2928
▁laughably	-11.2929
▁tail	-11.2936
▁suggested	-11.2942
▁careers	-11.2944
▁clone	-11.2945
▁topless	-11.2946
▁limit	-11.2952
▁puppets	-11.2952
▁possess	-11.2952
▁gor	-11.2956
▁accomplish	-11.2956
fun	-11.2965
▁guessed	-11.2967
▁relation	-11.297
▁boo	-11.2972
@	-11.2977
▁carradine	-11.2977
▁crawford	-11.2977
▁delicate	-11.2977
▁destiny	-11.2977
▁unsettling	-11.2977
▁bullock	-11.2977
▁remarkably	-11.2977
▁craven	-11.2978
▁fright	-11.2978
▁priceless	-11.2981
▁chances	-11.2985
▁ties	-11.2986
oli	-11.2992
▁leon	-11.2993
▁steam	-11.3003
▁pause	-11.3004
worker	-11.3006
▁faster	-11.3007
▁wished	-11.3008
▁pad	-11.3008
▁butler	-11.3008
▁huh	-11.3009
▁spacey	-11.3019
▁sara	-11.3022
ada	-11.3026
▁bridges	-11.3027
▁rave	-11.303
▁moody	-11.303
▁felix	-11.3032
▁sustain	-11.3032
▁skull	-11.3032
▁watson	-11.3032
▁blunt	-11.3033
▁conservative	-11.3033
▁boris	-11.3036
▁passage	-11.3036
▁relations	-11.3039
▁alcoholic	-11.3043
▁stare	-11.3046
▁attend	-11.3048
▁corman	-11.3051
▁staring	-11.3052
▁sincere	-11.3064
▁disco	-11.3065
▁launch	-11.307
▁concentrate	-11.307
▁citizens	-11.307
▁proceeds	-11.3071
▁apes	-11.3073
▁guests	-11.3076
▁mod	-11.3078
▁gall	-11.3079
chris	-11.3083
▁tripe	-11.3085
▁august	-11.3088
▁circus	-11.3088
▁tunnel	-11.3088
▁ritual	-11.3088
▁harvey	-11.3088
▁aussie	-11.3088
▁{	-11.3089
▁mil	-11.3091
▁shaw	-11.3092
▁opt	-11.3092
▁conceived	-11.3096
▁apple	-11.3096
dar	-11.3097
lit	-11.3098
▁swing	-11.3101
stars	-11.3102
pop	-11.3103
nick	-11.3107
▁rolled	-11.3108
era	-11.3109
▁bully	-11.3109
"...	-11.3112
pass	-11.3124
▁careful	-11.3125
▁remove	-11.3126
ban	-11.3129
▁iraq	-11.3129
foot	-11.313
word	-11.3132
again	-11.3135
▁joined	-11.3138
▁gri	-11.3138
motion	-11.314
oid	-11.3142
▁marketing	-11.3142
▁capturing	-11.3144
▁challenging	-11.3144
▁equivalent	-11.3144
▁transcend	-11.3144
▁rifle	-11.3144
▁greg	-11.3145
▁sappy	-11.3145
▁swimming	-11.3145
▁fluff	-11.3146
▁yawn	-11.3147
▁foolish	-11.3147
▁spain	-11.3151
▁lately	-11.3153
▁weakest	-11.3153
cus	-11.3158
80	-11.3164
▁jews	-11.3165
▁promote	-11.3172
▁trailers	-11.3173
▁stinks	-11.3183
▁abandon	-11.3183
▁belt	-11.3184
▁drops	-11.3185
▁pays	-11.3186
▁sentiment	-11.319
▁intend	-11.3191
▁seal	-11.3194
▁roller	-11.3199
▁arrival	-11.3201
▁behaviour	-11.3201
▁banned	-11.3201
▁facing	-11.3202
▁mormon	-11.3202
▁invasion	-11.3202
▁ape	-11.3202
▁civilization	-11.3202
▁karate	-11.3204
▁mont	-11.3204
-19	-11.3206
▁titanic	-11.3206
▁floating	-11.3215
▁cleverly	-11.3228
▁dolls	-11.3228
▁adams	-11.323
while	-11.3236
lyn	-11.3236
nar	-11.3239
▁disguise	-11.324
▁adopt	-11.324
▁thugs	-11.324
▁remained	-11.3249
tim	-11.3251
▁amounts	-11.3254
▁kin	-11.3257
▁muppet	-11.3258
▁definition	-11.3258
▁desperation	-11.3258
▁exquisite	-11.3258
▁nostalgic	-11.3258
▁possibilities	-11.3258
▁humble	-11.3258
▁warmth	-11.3265
▁warren	-11.3265
rent	-11.3267
▁pic	-11.3269
▁panic	-11.3279
▁clan	-11.328
born	-11.328
▁lowest	-11.328
▁closest	-11.328
your	-11.3285
▁ferr	-11.3286
nam	-11.329
ked	-11.3291
▁understandable	-11.3291
▁drift	-11.3292
▁stake	-11.3293
▁tho	-11.3294
evil	-11.3294
▁cg	-11.3295
▁jaw	-11.3296
▁expose	-11.3298
eat	-11.3301
ola	-11.3303
probably	-11.3305
▁crisp	-11.3306
▁avoided	-11.3309
▁paranoia	-11.3315
▁thompson	-11.3315
▁valuable	-11.3315
▁vomit	-11.3315
▁charlotte	-11.3316
▁acid	-11.3318
▁jesse	-11.3322
▁ensues	-11.3324
▁institution	-11.3328
▁cri	-11.3331
▁---	-11.3331
▁ranch	-11.3333
gon	-11.3339
▁interior	-11.3342
▁enhance	-11.3354
▁dismiss	-11.3355
▁introduce	-11.3358
▁conditions	-11.336
▁mul	-11.3362
complete	-11.3362
ali	-11.3365
▁conduct	-11.3368
zu	-11.3371
▁applaud	-11.3372
▁minimum	-11.3372
▁suspicion	-11.3372
▁ethnic	-11.3373
▁knee	-11.3374
anti	-11.3374
▁motivations	-11.3375
▁idol	-11.3378
▁popularity	-11.338
▁landing	-11.3381
▁drum	-11.3383
▁darn	-11.3385
▁annie	-11.3387
aries	-11.3388
▁damned	-11.3388
▁senseless	-11.3388
▁overlook	-11.3394
cen	-11.3398
▁severe	-11.3399
▁thru	-11.341
▁spade	-11.3411
▁arrest	-11.3412
▁premiere	-11.3417
▁realm	-11.3418
▁seeks	-11.3421
eb	-11.3421
▁justin	-11.3425
▁designer	-11.3426
▁birds	-11.3427
▁contribution	-11.343
▁literature	-11.343
▁vulnerable	-11.343
▁weather	-11.343
▁chainsaw	-11.343
▁rational	-11.343
▁2007	-11.343
▁cancer	-11.3431
▁pimp	-11.3432
▁marshall	-11.3432
▁betrayal	-11.3433
▁helpless	-11.3433
▁greed	-11.3434
▁authority	-11.3435
▁opinions	-11.3436
rio	-11.344
▁stroke	-11.3444
▁depicting	-11.3444
▁net	-11.3445
▁engineer	-11.3447
▁twins	-11.3454
▁promises	-11.3456
▁lip	-11.3462
▁3)	-11.3468
▁associate	-11.347
graph	-11.348
▁appreciation	-11.3488
▁composition	-11.3488
▁corporate	-11.3488
▁exploration	-11.3488
▁futuristic	-11.3488
▁judgment	-11.3488
▁dreary	-11.3488
▁ernest	-11.3488
▁bumbling	-11.3488
▁glance	-11.3489
▁hulk	-11.3489
▁sugar	-11.349
▁household	-11.349
▁patients	-11.3496
▁biker	-11.3504
app	-11.3507
▁purchased	-11.3511
rou	-11.3513
▁hints	-11.3519
▁waited	-11.3529
▁polish	-11.353
▁ry	-11.3533
▁alcohol	-11.3534
=	-11.3536
water	-11.3538
lost	-11.3546
▁aesthetic	-11.3547
▁phony	-11.3547
▁golf	-11.3547
▁meg	-11.3549
▁unhappy	-11.3549
▁deaf	-11.355
▁cy	-11.3552
▁vic	-11.3553
▁treats	-11.3553
90	-11.3554
cra	-11.3556
▁passable	-11.3556
gate	-11.3556
▁snap	-11.3557
▁hank	-11.356
fall	-11.3561
▁overacting	-11.3561
table	-11.3561
▁realizing	-11.3564
▁vaguely	-11.3566
▁mono	-11.357
▁attitudes	-11.3574
▁newman	-11.3586
▁shout	-11.3589
game	-11.359
▁claimed	-11.3591
kov	-11.3593
▁walt	-11.3595
load	-11.3595
production	-11.3596
▁pete	-11.3597
▁buffs	-11.3598
▁domestic	-11.3605
▁enthusiasm	-11.3605
▁species	-11.3606
▁maid	-11.3607
actors	-11.3608
▁roommate	-11.3608
▁climactic	-11.3608
▁hostage	-11.3609
▁christie	-11.3612
▁ps	-11.3625
▁wu	-11.3627
▁correctly	-11.3643
▁slo	-11.3653
moving	-11.3657
▁adolescent	-11.3665
▁celebrity	-11.3665
▁holocaust	-11.3665
▁narrow	-11.3665
▁patience	-11.3665
▁loneliness	-11.3665
▁venice	-11.3665
▁compete	-11.3665
▁spock	-11.3665
▁tiresome	-11.3665
ians	-11.3665
▁miniseries	-11.3665
▁construction	-11.3666
▁harold	-11.3666
▁wizard	-11.3667
▁bela	-11.3667
▁dud	-11.3667
▁barrel	-11.3668
▁stir	-11.3668
▁nyc	-11.3668
▁awhile	-11.3671
▁clo	-11.3675
-13	-11.3679
▁chess	-11.3681
arm	-11.3684
▁ian	-11.3686
▁hyper	-11.3692
▁liz	-11.3695
▁greatness	-11.3698
raw	-11.3698
▁capital	-11.3701
▁directs	-11.3713
▁promised	-11.3714
60	-11.372
ira	-11.3722
▁descend	-11.3723
▁leather	-11.3724
▁rhythm	-11.3724
▁samurai	-11.3724
▁graduate	-11.3724
▁mysteries	-11.3724
▁wives	-11.3725
▁sixties	-11.3725
▁quaid	-11.3725
▁misery	-11.3725
▁kingdom	-11.3726
▁property	-11.3727
▁addiction	-11.3728
▁plight	-11.3728
▁stale	-11.3729
▁foxx	-11.3729
▁origin	-11.373
▁reg	-11.3731
▁gentleman	-11.3731
nder	-11.3732
▁wishing	-11.3735
▁file	-11.3736
▁orders	-11.3737
▁refused	-11.3739
▁spit	-11.3746
▁cheat	-11.3749
▁peck	-11.3751
▁gere	-11.3751
▁len	-11.3754
think	-11.3759
▁distinct	-11.3767
▁gru	-11.3768
▁ah	-11.377
▁beliefs	-11.3771
ula	-11.3772
wash	-11.3772
mat	-11.3775
▁boxing	-11.3783
▁mundane	-11.3784
▁timothy	-11.3784
▁turkish	-11.3784
▁asylum	-11.3784
▁triangle	-11.3784
▁warrant	-11.3784
▁sensational	-11.3784
▁ellen	-11.3785
▁romero	-11.3785
▁kyle	-11.3786
▁minister	-11.3786
▁selection	-11.3787
▁worn	-11.3788
▁newly	-11.3789
▁teaches	-11.3791
▁agrees	-11.3791
bin	-11.3793
▁helm	-11.3795
▁berlin	-11.3799
▁secondary	-11.3799
▁donna	-11.38
▁steer	-11.3801
city	-11.3804
mill	-11.3804
▁cro	-11.3808
lian	-11.381
say	-11.3812
▁exceptionally	-11.3812
▁rear	-11.3816
▁milo	-11.3816
▁gifted	-11.3816
▁moreover	-11.3817
▁rein	-11.3818
fla	-11.3818
▁lad	-11.3821
▁symbolic	-11.3831
wife	-11.3831
ani	-11.3833
provoking	-11.3834
▁chat	-11.3837
▁roth	-11.384
▁activities	-11.3844
▁amazon	-11.3844
▁audition	-11.3844
▁integrity	-11.3844
▁testament	-11.3844
▁travesty	-11.3844
▁whale	-11.3844
▁cigarette	-11.3844
▁smiling	-11.3844
▁1999	-11.3845
▁ritter	-11.3845
▁dickens	-11.3845
▁representation	-11.3847
▁gender	-11.3848
▁educational	-11.3849
▁clock	-11.3851
▁experimental	-11.3854
▁creator	-11.3859
▁defined	-11.3866
break	-11.3872
▁nuts	-11.3877
▁pops	-11.3879
▁babe	-11.388
ppy	-11.389
▁mute	-11.389
▁mari	-11.3892
▁wash	-11.3896
▁tur	-11.3896
▁worker	-11.3898
▁nolan	-11.3901
▁arab	-11.3902
▁relatives	-11.3902
▁hugh	-11.3905
▁astronaut	-11.3905
▁bernard	-11.3905
▁wisdom	-11.3905
▁conrad	-11.3905
▁angst	-11.3905
▁orange	-11.3906
▁egyptian	-11.3906
▁hokey	-11.3906
lou	-11.3907
▁june	-11.3908
▁~	-11.3909
▁heartbreaking	-11.3912
notch	-11.3912
bur	-11.3913
▁letters	-11.3914
▁palm	-11.3917
▁proceed	-11.3923
▁gather	-11.3926
ologist	-11.3926
▁namely	-11.3926
bed	-11.3927
▁represented	-11.3929
▁nod	-11.393
▁blu	-11.3932
bling	-11.3935
lier	-11.394
▁complaining	-11.3942
▁satisfy	-11.3944
▁expressed	-11.3947
▁amy	-11.3947
ika	-11.3948
▁transport	-11.3948
▁unreal	-11.3953
▁grin	-11.3955
david	-11.3956
▁austin	-11.3966
▁dylan	-11.3966
▁wacky	-11.3966
▁session	-11.3966
▁soccer	-11.3966
▁worm	-11.3966
ifying	-11.3966
▁decline	-11.3966
▁crocodile	-11.3967
▁aaron	-11.3967
home	-11.3969
▁profit	-11.3973
▁wildly	-11.3975
▁ste	-11.3975
▁vera	-11.3976
▁carmen	-11.398
dog	-11.3983
▁scripts	-11.3987
▁reward	-11.3999
▁groups	-11.4006
▁virginia	-11.4011
▁astonishing	-11.4014
▁channels	-11.4018
another	-11.402
▁slim	-11.4021
dding	-11.4022
zar	-11.4026
▁antonio	-11.4027
▁manipulative	-11.4027
▁widmark	-11.4027
▁distress	-11.4027
▁april	-11.4027
▁internal	-11.4028
▁shift	-11.4028
▁scooby	-11.4028
▁simultaneously	-11.4029
▁mol	-11.4029
▁ensure	-11.4029
▁uncover	-11.4029
▁reaching	-11.403
▁cope	-11.4033
▁pray	-11.4034
▁scottish	-11.4035
▁musician	-11.4035
/5	-11.4037
arch	-11.4037
▁masses	-11.4039
ulation	-11.4041
ima	-11.4041
▁troops	-11.4042
▁photos	-11.4046
ero	-11.4053
never	-11.4058
▁crossing	-11.4059
▁homer	-11.4065
bell	-11.4065
non	-11.4066
▁taxi	-11.4067
▁brat	-11.4068
▁tackle	-11.407
trap	-11.407
ique	-11.4074
▁checked	-11.4075
▁diver	-11.4076
brazil	-11.4079
▁likewise	-11.4082
▁stink	-11.4088
▁marvel	-11.4088
▁ambiguous	-11.4089
▁astounding	-11.4089
▁compelled	-11.4089
▁eternal	-11.4089
▁seldom	-11.4089
▁mayhem	-11.4089
▁drove	-11.4089
▁mum	-11.409
▁alarm	-11.4091
▁trivial	-11.4092
▁joel	-11.4092
▁3000	-11.4093
▁dancers	-11.4093
▁harmless	-11.4094
cross	-11.4095
goers	-11.4095
▁shoe	-11.4098
▁ye	-11.4102
eau	-11.4106
▁discovering	-11.4107
eu	-11.4109
▁julian	-11.411
▁colin	-11.4112
▁dialogues	-11.4127
▁musicians	-11.4127
▁performs	-11.4135
▁cher	-11.415
▁arguably	-11.4151
▁rochester	-11.4151
▁conquer	-11.4151
▁bettie	-11.4151
▁2003	-11.4152
▁straightforward	-11.4152
▁underworld	-11.4155
fish	-11.4163
eng	-11.4163
▁severely	-11.4165
▁limb	-11.4166
▁gig	-11.4167
▁latin	-11.417
earth	-11.4171
▁dish	-11.4173
▁loaded	-11.418
▁disliked	-11.4187
▁forms	-11.4189
▁ban	-11.4194
▁6.	-11.4195
▁quotes	-11.4197
▁dub	-11.4197
▁lands	-11.4198
▁resulting	-11.42
▁catchy	-11.4204
▁#	-11.4204
▁hor	-11.421
▁lei	-11.4212
▁nbc	-11.4213
▁nonsensical	-11.4213
▁suffice	-11.4213
▁resources	-11.4214
▁visible	-11.4214
▁cuba	-11.4214
▁drill	-11.4214
▁bravo	-11.4214
▁kitty	-11.4215
▁diana	-11.4216
▁slam	-11.4218
▁filler	-11.422
▁ww	-11.4221
bound	-11.4224
taking	-11.4224
▁fuel	-11.4224
▁poem	-11.4227
▁chu	-11.4228
▁lap	-11.4229
mes	-11.4229
▁surfing	-11.4231
▁rome	-11.4244
▁kit	-11.4249
▁breed	-11.4251
boat	-11.4251
▁challenged	-11.4252
▁suspend	-11.4258
ash	-11.426
▁monkeys	-11.4262
▁waves	-11.4265
james	-11.4267
nothing	-11.4268
▁dame	-11.4273
▁psychopath	-11.4275
▁exposition	-11.4276
▁exposure	-11.4276
▁miike	-11.4276
▁supply	-11.4276
▁divine	-11.4276
▁1995	-11.4277
▁unaware	-11.4277
▁stack	-11.4278
▁faults	-11.4279
▁biography	-11.4279
▁stream	-11.4279
▁conviction	-11.428
▁petty	-11.428
▁jacket	-11.4286
▁disappears	-11.4286
▁dresses	-11.4286
▁questionable	-11.4292
vie	-11.4293
▁ur	-11.4295
▁messed	-11.43
▁eats	-11.4304
zer	-11.4305
▁showdown	-11.4305
▁robots	-11.4306
rian	-11.4311
space	-11.4314
suit	-11.4315
▁methods	-11.4317
▁pound	-11.4318
▁widely	-11.4324
modern	-11.433
mother	-11.433
twist	-11.433
▁catching	-11.4331
using	-11.4332
▁hates	-11.4333
▁reader	-11.4334
dance	-11.4336
▁dilemma	-11.434
▁evolution	-11.434
▁tomorrow	-11.434
▁abusive	-11.434
▁meryl	-11.434
▁respected	-11.434
▁counterpart	-11.434
▁descent	-11.434
▁demise	-11.434
▁flair	-11.434
▁reverse	-11.4341
▁twilight	-11.4341
▁patricia	-11.4341
▁#1	-11.4341
▁judy	-11.4341
▁cruelty	-11.4343
▁fascinated	-11.4343
▁cities	-11.4345
▁daddy	-11.4346
▁kicking	-11.4357
▁marc	-11.4357
▁haunt	-11.4365
▁scrap	-11.4369
▁ble	-11.4383
aid	-11.4386
▁lamb	-11.4392
perhaps	-11.4393
first	-11.4393
child	-11.4393
▁tooth	-11.4396
▁modest	-11.4397
▁bones	-11.4397
▁pee	-11.44
▁globe	-11.4403
▁montgomery	-11.4403
▁sarandon	-11.4403
▁simplicity	-11.4403
▁spaghetti	-11.4403
▁sublime	-11.4403
▁assigned	-11.4403
▁candidate	-11.4403
▁inherent	-11.4403
▁barrymore	-11.4404
▁surviving	-11.4404
▁micro	-11.4405
▁widescreen	-11.4405
▁skeleton	-11.4405
▁missile	-11.4406
▁stab	-11.4408
▁lily	-11.4409
▁require	-11.4411
▁rack	-11.4413
▁invited	-11.4413
▁witnesses	-11.4414
▁sounding	-11.4414
▁writes	-11.4415
▁intentionally	-11.4415
ucci	-11.4416
▁heading	-11.4418
▁rep	-11.4419
▁spirits	-11.442
▁ren	-11.4423
▁awfully	-11.4426
▁radical	-11.4427
▁tower	-11.4427
▁rooms	-11.4428
▁hippie	-11.4434
▁til	-11.4441
got	-11.4445
▁receives	-11.4446
▁dia	-11.445
▁cel	-11.4455
yet	-11.4457
▁tasteless	-11.4458
▁tracking	-11.446
▁bitch	-11.446
▁raises	-11.4461
▁euro	-11.4466
▁gems	-11.4467
▁register	-11.4467
▁companies	-11.4467
▁deranged	-11.4467
▁drake	-11.4467
▁uplifting	-11.4468
▁velvet	-11.4468
▁collapse	-11.4468
▁sunshine	-11.4468
chu	-11.4468
▁hartley	-11.4469
▁static	-11.4469
▁mobster	-11.4469
▁valid	-11.4469
▁loop	-11.4472
▁retired	-11.4474
▁'70	-11.4475
▁complexity	-11.4475
▁heston	-11.4475
▁candle	-11.4477
▁demonic	-11.4478
▁scan	-11.448
▁online	-11.4484
▁strangers	-11.4494
▁thread	-11.4498
cam	-11.4499
hn	-11.4502
▁behold	-11.4502
▁shell	-11.4509
gli	-11.4513
▁policeman	-11.4515
▁abused	-11.4518
▁lens	-11.452
▁disgrace	-11.452
before	-11.4522
▁geek	-11.4526
▁voyage	-11.4527
▁exhibit	-11.4528
▁analysis	-11.4532
▁fifth	-11.4532
▁fifty	-11.4532
▁muddled	-11.4532
▁stunned	-11.4532
▁lunch	-11.4532
▁smack	-11.4532
▁alley	-11.4536
▁assassination	-11.4536
▁parade	-11.4537
▁jumped	-11.4538
▁chap	-11.4542
▁'80	-11.4543
▁prom	-11.455
▁lasted	-11.4553
▁toys	-11.4561
▁frog	-11.4563
▁advanced	-11.4564
▁secretly	-11.4567
▁flee	-11.4571
nc	-11.4574
▁coup	-11.4575
▁guards	-11.4578
▁chew	-11.4582
▁hoot	-11.4589
▁sucker	-11.4595
▁compassion	-11.4597
▁generations	-11.4597
▁accuracy	-11.4597
▁kenneth	-11.4597
▁maggie	-11.4597
▁schedule	-11.4597
▁unravel	-11.4597
▁wagner	-11.4597
▁voight	-11.4597
▁dalton	-11.4597
ington	-11.4598
▁sunny	-11.4599
▁vet	-11.4605
▁precisely	-11.4605
script	-11.4605
▁visiting	-11.4605
▁cobb	-11.4606
▁reign	-11.461
▁sung	-11.4612
▁gap	-11.4612
▁molly	-11.4612
▁genres	-11.462
tech	-11.4624
▁tax	-11.4629
▁landscapes	-11.4632
▁neighbors	-11.4635
▁ordered	-11.4638
▁3-	-11.4639
▁slash	-11.4644
gone	-11.465
length	-11.4652
pet	-11.4657
▁orchestra	-11.4659
▁attorney	-11.4662
▁corporation	-11.4662
▁dawson	-11.4662
▁penguin	-11.4662
▁wretched	-11.4662
▁pioneer	-11.4662
▁rehash	-11.4662
▁brooklyn	-11.4662
▁claus	-11.4663
▁bunny	-11.4663
▁feminist	-11.4664
▁hughes	-11.4667
wall	-11.4667
▁misleading	-11.4668
▁lively	-11.467
▁patch	-11.4672
▁occasions	-11.4678
▁purposes	-11.468
▁wong	-11.4686
▁chicks	-11.4686
▁spine	-11.4688
▁sits	-11.469
▁comedians	-11.4697
▁moronic	-11.4698
▁fashioned	-11.4698
▁mighty	-11.4704
▁bru	-11.4705
nice	-11.4712
▁rocky	-11.4717
▁bash	-11.4717
forward	-11.472
laugh	-11.4722
▁randomly	-11.4727
▁centers	-11.4728
▁akshay	-11.4728
▁belushi	-11.4728
▁fantasies	-11.4728
▁primitive	-11.4728
▁stranded	-11.4728
▁insanity	-11.4728
▁flirt	-11.4728
▁faint	-11.4728
▁kapoor	-11.4728
▁hooker	-11.4728
▁riddle	-11.473
▁blackmail	-11.473
▁couch	-11.4731
▁forbidden	-11.4731
▁natalie	-11.4732
▁signed	-11.474
▁shore	-11.4746
▁washed	-11.4751
ram	-11.4757
▁objects	-11.4763
▁simpson	-11.4765
pat	-11.4766
▁affairs	-11.477
ona	-11.477
▁moron	-11.4774
▁corpses	-11.4774
nel	-11.4775
▁inhabit	-11.4776
▁immediate	-11.4781
▁23	-11.4785
▁outline	-11.4788
▁nephew	-11.4794
▁prospect	-11.4794
▁spectacle	-11.4794
▁variation	-11.4794
▁despise	-11.4794
▁que	-11.4794
▁purple	-11.4795
aire	-11.4797
▁feat	-11.4799
▁differently	-11.48
▁salman	-11.4801
▁employ	-11.4802
▁uwe	-11.4802
▁greedy	-11.4806
▁joey	-11.4806
▁aids	-11.4807
▁standout	-11.4808
▁shin	-11.4808
▁regarded	-11.4809
wow	-11.4811
▁	-11.4811
org	-11.4815
▁experiments	-11.4827
▁earl	-11.4832
▁accurately	-11.4847
▁virtual	-11.4848
aud	-11.485
particularly	-11.4851
yeah	-11.4851
having	-11.4855
give	-11.4859
▁balls	-11.4859
true	-11.486
▁elevator	-11.4861
▁mount	-11.4861
▁astaire	-11.4861
▁unpredictable	-11.4861
▁underwater	-11.4864
▁choreographed	-11.4865
happy	-11.4865
▁tacky	-11.4866
mine	-11.4869
▁pose	-11.4869
▁harrison	-11.487
▁excel	-11.4874
▁suggestion	-11.4883
wick	-11.4888
▁relax	-11.4888
▁businessman	-11.4892
▁prot	-11.4896
www	-11.4899
▁sant	-11.4899
▁juliet	-11.49
▁rom	-11.49
▁inability	-11.4901
▁caricature	-11.4901
▁lengthy	-11.4902
▁clueless	-11.4903
hum	-11.4905
▁uh	-11.4906
▁convict	-11.4906
▁bike	-11.4914
▁rex	-11.4914
cio	-11.4915
▁repeating	-11.4915
▁passengers	-11.4915
▁rider	-11.4917
people	-11.4918
family	-11.4918
open	-11.4918
richard	-11.4919
lies	-11.492
monster	-11.4921
check	-11.4922
▁meal	-11.4926
▁explosive	-11.4928
▁inevitably	-11.4928
▁lackluster	-11.4928
▁profanity	-11.4928
▁raymond	-11.4928
▁robbins	-11.4928
▁wardrobe	-11.4928
▁meteor	-11.4928
▁stuart	-11.4929
▁referred	-11.4929
▁edgy	-11.493
▁shoulder	-11.493
▁ballet	-11.4932
▁lauren	-11.4932
▁jock	-11.4933
▁route	-11.4935
▁mega	-11.4939
▁jill	-11.494
▁willie	-11.4942
▁stumbled	-11.4942
▁gil	-11.4948
▁shouting	-11.4952
▁complaints	-11.4953
have	-11.4964
▁appropriately	-11.4965
▁poke	-11.4966
▁backgrounds	-11.4969
really	-11.4975
wn	-11.4979
sub	-11.4981
gene	-11.4986
▁client	-11.4996
▁literary	-11.4996
▁motorcycle	-11.4996
▁niece	-11.4996
▁silliness	-11.4996
▁culminat	-11.4996
▁beware	-11.4996
▁clash	-11.4996
▁verbal	-11.4996
▁walsh	-11.4997
▁2002	-11.4997
▁erika	-11.5
▁errol	-11.5001
▁civilian	-11.5008
▁invented	-11.5009
▁painter	-11.5013
heart	-11.5017
▁pam	-11.5018
▁pill	-11.502
▁+	-11.5026
▁explode	-11.5043
▁scores	-11.5045
▁conflicts	-11.505
character	-11.5053
▁salt	-11.5061
▁vulgar	-11.5062
▁distribution	-11.5064
▁ignorance	-11.5064
▁obligatory	-11.5064
▁rourke	-11.5064
▁worship	-11.5064
▁babies	-11.5064
▁ginger	-11.5064
▁conscience	-11.5064
▁femme	-11.5064
▁nightclub	-11.5065
▁exorcist	-11.5065
▁controlled	-11.5069
.......	-11.5069
▁hindi	-11.507
▁profession	-11.5071
▁zoom	-11.5071
▁lance	-11.5075
▁adaptations	-11.5075
▁heap	-11.5076
▁warriors	-11.5078
▁sometime	-11.5089
▁surround	-11.5093
rely	-11.5093
▁tube	-11.5093
▁lifted	-11.5095
uni	-11.5096
▁quietly	-11.5113
▁remarks	-11.5115
▁hans	-11.5118
once	-11.5119
perfect	-11.5122
▁hurts	-11.5123
▁realised	-11.5124
▁tease	-11.513
▁stro	-11.5132
▁inaccurate	-11.5132
▁inconsistent	-11.5132
▁olivier	-11.5132
▁rooney	-11.5132
▁injured	-11.5132
▁–	-11.5132
▁exterior	-11.5132
▁dysfunctional	-11.5133
▁machines	-11.5133
▁significance	-11.5134
▁phantom	-11.5134
▁nicholas	-11.5135
▁dolph	-11.5136
▁grainy	-11.5138
▁restored	-11.5143
▁hyde	-11.5144
▁biased	-11.5145
aw	-11.5145
▁strongest	-11.5147
▁generated	-11.515
▁phillips	-11.5151
▁sid	-11.5152
▁positively	-11.5157
▁victory	-11.5158
▁mus	-11.5162
▁vin	-11.5174
▁tastes	-11.5178
▁noises	-11.5179
▁ter	-11.5182
▁hunters	-11.5185
hur	-11.5187
▁filth	-11.5191
▁fiancé	-11.5191
▁99	-11.5193
▁rag	-11.5195
▁bent	-11.5199
▁fog	-11.52
▁describing	-11.5201
▁investigating	-11.5201
▁participate	-11.5201
▁preposterous	-11.5201
▁antagonist	-11.5201
▁elevate	-11.5201
▁muscle	-11.5201
▁pleasing	-11.5201
▁championship	-11.5202
▁jenny	-11.5202
▁buzz	-11.5202
▁motor	-11.5202
▁economic	-11.5202
▁beard	-11.521
fact	-11.521
much	-11.5212
disc	-11.5213
ock	-11.5218
▁adopted	-11.5223
ctor	-11.5228
pit	-11.5229
▁insightful	-11.5234
nor	-11.5235
held	-11.5237
pic	-11.5251
▁resident	-11.5251
▁prominent	-11.5257
▁spirited	-11.5263
▁1980'	-11.5266
▁stiller	-11.5269
▁trauma	-11.527
▁architect	-11.527
▁1972	-11.5271
▁odyssey	-11.5271
▁request	-11.5271
▁click	-11.5271
▁ingenious	-11.5271
▁visits	-11.5271
▁entitled	-11.5271
▁bogart	-11.5271
▁furious	-11.5271
▁farrell	-11.5273
▁barker	-11.5274
▁beatty	-11.5276
▁brutality	-11.5276
▁dropping	-11.5276
▁jackass	-11.5277
000	-11.5278
oz	-11.5283
▁assure	-11.5283
▁amused	-11.5288
▁destroying	-11.5292
▁weakness	-11.5293
$	-11.5298
▁lush	-11.5302
▁kor	-11.5308
▁demonstrates	-11.5313
▁bands	-11.5317
11	-11.5318
▁adore	-11.5326
▁).	-11.5328
▁completed	-11.5332
▁chooses	-11.5338
▁bun	-11.5339
▁assumed	-11.5339
▁credited	-11.534
▁disregard	-11.5341
▁elvira	-11.5341
▁extensive	-11.5341
▁fascination	-11.5341
▁insipid	-11.5341
▁neighbour	-11.5341
▁sergeant	-11.5341
▁shoddy	-11.5341
▁herzog	-11.5341
▁biopic	-11.5341
▁debt	-11.5341
▁emphasize	-11.5341
▁confidence	-11.5342
▁fluid	-11.5342
▁unseen	-11.5342
▁sending	-11.5347
▁rev	-11.5351
music	-11.5353
fly	-11.5354
▁rendered	-11.5355
step	-11.5358
▁apply	-11.5359
var	-11.536
▁bel	-11.5361
▁polished	-11.5362
▁cary	-11.5367
▁evan	-11.537
▁fried	-11.5376
does	-11.538
▁industrial	-11.538
▁unexpectedly	-11.5385
▁setup	-11.5391
cept	-11.54
phy	-11.5401
kind	-11.5405
▁instrument	-11.5407
feel	-11.5409
joe	-11.541
▁biblical	-11.5411
▁cyborg	-11.5411
▁empathy	-11.5411
▁hackneyed	-11.5411
▁illusion	-11.5411
▁perception	-11.5411
▁unlikable	-11.5411
▁demented	-11.5411
▁grief	-11.5411
▁giggle	-11.5411
▁frightened	-11.5411
▁authorities	-11.5413
▁irene	-11.5413
▁vital	-11.5414
▁invention	-11.5415
▁possession	-11.5417
▁photograph	-11.5419
▁minus	-11.542
▁monty	-11.5424
▁wwe	-11.5427
▁desires	-11.5434
▁regime	-11.5434
▁murdering	-11.5437
▁startling	-11.5439
rest	-11.5441
▁transformed	-11.5442
▁firstly	-11.5446
▁presenting	-11.5455
▁engine	-11.5461
▁dealer	-11.5465
▁wholly	-11.5466
▁kissing	-11.5473
please	-11.5473
▁hears	-11.5474
▁alec	-11.5474
gal	-11.5475
▁opportunities	-11.5482
▁pocket	-11.5482
▁prequel	-11.5482
▁dreck	-11.5482
▁simmons	-11.5482
▁chorus	-11.5482
▁denzel	-11.5482
▁snipes	-11.5483
▁godzilla	-11.5483
▁loyalty	-11.5484
▁crown	-11.5484
▁thrust	-11.5485
▁hungry	-11.5485
▁bald	-11.5487
▁preachy	-11.5489
▁unlikeable	-11.5495
▁crashes	-11.5495
▁someday	-11.5495
▁pole	-11.5496
▁incorrect	-11.5501
▁consideration	-11.5502
cca	-11.5502
▁lifeless	-11.5504
▁posted	-11.5509
ami	-11.5511
▁cam	-11.5515
actor	-11.5518
cor	-11.5519
▁supported	-11.5521
15	-11.5522
wer	-11.5524
▁interactions	-11.5527
▁knocked	-11.5535
▁generate	-11.5537
▁abrupt	-11.554
count	-11.5542
▁coward	-11.5547
▁derivative	-11.5553
▁inexplicably	-11.5553
▁lampoon	-11.5553
▁recycled	-11.5553
▁brosnan	-11.5553
▁domino	-11.5553
directed	-11.5553
▁jarring	-11.5555
▁blink	-11.5555
▁recreate	-11.5555
▁organization	-11.5555
▁hogan	-11.5556
▁wilderness	-11.5556
▁tire	-11.5557
▁additional	-11.5558
▁assist	-11.5558
shoot	-11.556
▁sympathize	-11.5565
▁dwell	-11.5566
▁rapist	-11.5568
▁cookie	-11.5574
plan	-11.5575
▁shared	-11.5577
▁michel	-11.5582
▁delve	-11.5584
▁plate	-11.5584
▁simpsons	-11.5585
▁refuse	-11.5596
mont	-11.5597
▁translate	-11.5607
▁dodge	-11.5608
▁dances	-11.5614
▁vain	-11.5623
▁elm	-11.5624
è	-11.5625
▁devastating	-11.5625
▁macbeth	-11.5625
▁provocative	-11.5625
▁surgery	-11.5625
▁steady	-11.5625
▁snatch	-11.5625
▁northern	-11.5625
▁choppy	-11.5626
▁shred	-11.5628
▁stern	-11.5628
▁vince	-11.5632
▁bread	-11.5632
▁confession	-11.5633
east	-11.5635
▁pra	-11.5636
▁rejected	-11.564
▁hug	-11.564
▁scifi	-11.5642
▁hopelessly	-11.5644
▁poe	-11.5644
▁filling	-11.5644
nation	-11.5645
sam	-11.5646
▁grass	-11.5648
▁brady	-11.565
▁items	-11.5651
▁danes	-11.5656
▁marked	-11.5658
bul	-11.5661
▁liners	-11.5677
turn	-11.5679
▁reeves	-11.5679
wo	-11.5682
▁cloud	-11.5689
▁ships	-11.5691
▁heroin	-11.5691
▁strain	-11.5692
▁respective	-11.5692
▁morbid	-11.5698
▁blob	-11.5698
▁heartwarming	-11.5699
▁interestingly	-11.57
unless	-11.5701
▁exceptions	-11.5705
▁snowman	-11.5707
▁teachers	-11.5709
▁dive	-11.571
▁foil	-11.571
▁merits	-11.5711
▁playboy	-11.5712
▁bart	-11.5717
burn	-11.5718
▁overlong	-11.5718
▁viewings	-11.5719
▁threatens	-11.5722
▁afterward	-11.5725
▁lure	-11.5732
▁screwed	-11.5733
▁dil	-11.5735
oooo	-11.5743
▁slide	-11.5744
▁intro	-11.575
▁loy	-11.5759
george	-11.5761
hell	-11.5761
▁historic	-11.5766
▁esp	-11.5768
▁2:	-11.5769
▁immortal	-11.5769
▁bubble	-11.5771
▁columbia	-11.5771
▁exploring	-11.5771
▁identical	-11.5771
▁pierce	-11.5771
▁technicolor	-11.5771
▁travolta	-11.5771
▁valentine	-11.5771
▁article	-11.5771
▁newcomer	-11.5771
▁mitchum	-11.5771
▁enlist	-11.5772
▁eleven	-11.5774
▁spill	-11.5776
eye	-11.5778
rod	-11.5779
hold	-11.5779
▁acclaimed	-11.578
▁difficulties	-11.5781
▁jam	-11.5783
▁located	-11.5784
▁whip	-11.5784
▁richardson	-11.5785
lord	-11.5787
▁blur	-11.5798
▁....	-11.5804
▁annoy	-11.5805
▁dash	-11.5808
▁tapes	-11.5828
eth	-11.5829
▁losers	-11.5831
▁22	-11.5836
▁fundamental	-11.5839
stick	-11.5841
▁cer	-11.5842
▁explores	-11.5843
▁carey	-11.5843
▁1983	-11.5844
▁1997	-11.5844
▁9/11	-11.5844
▁deceased	-11.5844
▁expense	-11.5844
▁fifties	-11.5844
▁obsessive	-11.5844
▁orleans	-11.5844
▁substitute	-11.5844
▁underneath	-11.5844
▁psychology	-11.5844
▁sickening	-11.5844
▁palace	-11.5844
▁$2	-11.5845
▁dillon	-11.5845
▁compensate	-11.5845
▁preferred	-11.5846
▁boxer	-11.5847
▁considerably	-11.5848
▁continually	-11.5848
▁bacon	-11.5848
▁rusty	-11.5849
exp	-11.5849
▁serving	-11.5849
▁carlos	-11.585
▁sooner	-11.585
▁pages	-11.5852
▁shootout	-11.5853
zen	-11.5858
▁highway	-11.5862
▁firmly	-11.5862
▁disgusted	-11.5862
▁penny	-11.5866
▁conan	-11.5867
▁sap	-11.5868
▁distract	-11.5874
▁hearted	-11.5876
jun	-11.5876
▁disgust	-11.5879
ante	-11.5884
▁cube	-11.5888
brow	-11.5889
pel	-11.5895
wh	-11.5897
▁2"	-11.5899
▁wilder	-11.5903
▁charged	-11.5903
conscious	-11.5904
sorry	-11.5909
shock	-11.591
▁heights	-11.5912
lay	-11.5918
▁gibson	-11.5918
▁hilarity	-11.5918
▁imaginable	-11.5918
▁submarine	-11.5918
▁intricate	-11.5918
▁rupert	-11.5918
▁sufficient	-11.5918
▁agency	-11.5918
▁cattle	-11.5918
▁mildred	-11.5919
▁goldberg	-11.592
▁apocalypse	-11.5922
▁commitment	-11.5922
▁drinks	-11.5923
▁snl	-11.5923
▁macho	-11.5924
▁designs	-11.5926
▁ponder	-11.5926
▁undead	-11.5926
▁melt	-11.5926
dling	-11.5929
witch	-11.5932
▁poker	-11.5937
▁christians	-11.5938
▁liv	-11.594
▁nap	-11.5946
body	-11.5948
killer	-11.5953
▁observe	-11.5961
▁roots	-11.5963
▁grabs	-11.5964
▁ven	-11.5965
▁mechanical	-11.5966
psycho	-11.5973
▁acknowledge	-11.5975
▁illustrate	-11.5975
father	-11.598
▁styles	-11.5982
west	-11.5982
hollywood	-11.5983
trust	-11.5983
ement	-11.5984
▁kidman	-11.5984
▁doctors	-11.5987
mac	-11.5988
pose	-11.599
▁incorporate	-11.599
▁chill	-11.5991
▁bounty	-11.5993
▁disorder	-11.5993
▁legacy	-11.5993
▁peculiar	-11.5993
▁syndrome	-11.5993
▁cushing	-11.5993
▁dwarf	-11.5993
▁ronald	-11.5993
▁resume	-11.5993
▁1968	-11.5993
▁shortcomings	-11.5993
▁basketball	-11.5993
▁churn	-11.5993
▁montana	-11.5993
▁amusement	-11.5993
▁shaky	-11.5994
▁suburban	-11.5995
▁kurtz	-11.5995
▁acceptance	-11.5996
▁waitress	-11.5996
▁studying	-11.5997
▁phenomenal	-11.6
zombie	-11.6
▁flashes	-11.6003
▁beside	-11.6005
via	-11.6007
▁matched	-11.6007
▁respectable	-11.6007
▁deserted	-11.6009
▁outfits	-11.6009
▁witches	-11.6012
▁jacob	-11.6025
▁demanding	-11.603
cie	-11.6032
kee	-11.6034
▁shorter	-11.6044
▁israeli	-11.6044
rose	-11.605
▁dominate	-11.605
▁torment	-11.6052
talk	-11.6052
▁reluctant	-11.6055
chan	-11.6061
▁tomb	-11.6064
▁invites	-11.6066
▁clooney	-11.6068
▁entrance	-11.6068
▁eugene	-11.6068
▁quentin	-11.6068
▁virtue	-11.6068
▁clerk	-11.6068
▁heartfelt	-11.6068
▁aspiring	-11.6068
▁kathy	-11.6068
▁kidnapping	-11.6069
▁hilton	-11.607
▁communication	-11.607
▁ponyo	-11.607
▁busey	-11.607
▁jaws	-11.6071
▁viewpoint	-11.6071
▁harbor	-11.6072
▁weaknesses	-11.6072
▁distraction	-11.6073
▁spaceship	-11.6073
▁marx	-11.6074
▁peril	-11.6076
▁crazed	-11.6077
▁previews	-11.6079
roy	-11.6088
▁helpful	-11.6093
ility	-11.6101
▁pirate	-11.6103
rac	-11.6107
test	-11.6116
▁karl	-11.6121
▁zo	-11.6124
▁mama	-11.6127
▁challenges	-11.6132
writing	-11.6134
▁outlaw	-11.6135
odd	-11.6137
almost	-11.614
▁8.	-11.6143
▁plum	-11.6144
▁assignment	-11.6144
▁bakshi	-11.6144
▁bikini	-11.6144
▁buffalo	-11.6144
▁scotland	-11.6144
▁unexplained	-11.6144
▁vibrant	-11.6144
▁embark	-11.6144
▁motive	-11.6144
▁staple	-11.6144
rating	-11.6144
▁promotion	-11.6145
▁shaking	-11.6145
▁frantic	-11.6146
▁survivor	-11.6146
▁gentlemen	-11.6147
▁breakdown	-11.6147
▁dunne	-11.6148
▁partially	-11.615
▁danish	-11.6151
▁collector	-11.6151
▁tenant	-11.6156
▁damon	-11.6159
▁resolved	-11.6159
may	-11.6165
scape	-11.6168
live	-11.6169
▁gable	-11.6173
▁exp	-11.6174
genre	-11.6175
add	-11.6186
12	-11.6187
▁troubles	-11.6188
▁norm	-11.6191
▁ivan	-11.6191
▁grind	-11.6193
▁abound	-11.6197
▁confirm	-11.6202
date	-11.6202
▁freeze	-11.6203
▁garner	-11.6204
▁shoulders	-11.6209
fetched	-11.621
murder	-11.621
young	-11.6214
▁celebration	-11.622
▁claustrophobic	-11.622
▁flavor	-11.622
▁paxton	-11.622
▁compromise	-11.622
▁frozen	-11.622
▁hayworth	-11.622
▁gorilla	-11.622
▁millionaire	-11.6221
▁aggressive	-11.6221
▁indication	-11.6222
▁dismal	-11.6222
▁centered	-11.6223
ius	-11.6224
▁ripping	-11.6224
▁morally	-11.6231
▁rapidly	-11.6233
ttp	-11.6233
▁kumar	-11.6236
▁stray	-11.6242
ush	-11.6246
▁surf	-11.6249
)...	-11.6253
▁barr	-11.6267
▁temp	-11.6277
▁garr	-11.6278
▁counts	-11.6279
aki	-11.628
▁entered	-11.6281
jay	-11.6282
cause	-11.6284
▁elder	-11.6286
ggy	-11.6292
▁charl	-11.6293
▁qualifie	-11.6294
takes	-11.6295
▁differ	-11.6296
▁orphan	-11.6296
▁echo	-11.6297
▁coppola	-11.6297
▁critique	-11.6297
▁disastrous	-11.6297
▁expedition	-11.6297
▁paradise	-11.6297
▁seymour	-11.6297
▁bastard	-11.6297
▁deleted	-11.6297
▁gregory	-11.6297
▁1979	-11.6297
▁subtly	-11.6298
▁christina	-11.6298
▁rambo	-11.6299
▁earnest	-11.6299
▁sharing	-11.6299
▁stopping	-11.6304
▁fence	-11.6305
▁minority	-11.6305
▁pushes	-11.6307
▁deer	-11.6308
▁complet	-11.6309
▁piper	-11.631
▁scriptwriter	-11.631
▁sang	-11.6315
▁dj	-11.6315
▁jealousy	-11.6316
logical	-11.6318
▁devices	-11.6318
▁wings	-11.6319
▁sincerely	-11.6321
16	-11.6325
lop	-11.6326
▁shan	-11.6334
nik	-11.6335
bone	-11.6338
▁specially	-11.6344
▁youngest	-11.6352
loud	-11.6355
▁posters	-11.6357
▁rates	-11.6361
▁dressing	-11.6362
dream	-11.6365
▁sums	-11.6368
▁duvall	-11.6375
▁caliber	-11.6375
▁camcorder	-11.6375
▁cemetery	-11.6375
▁engrossing	-11.6375
▁investigator	-11.6375
▁ominous	-11.6375
▁pistol	-11.6375
▁samantha	-11.6375
▁glaring	-11.6375
▁muppets	-11.6375
▁cycle	-11.6375
▁rambling	-11.6375
▁dictator	-11.6375
://	-11.6375
▁clay	-11.6375
▁bulk	-11.6375
▁studies	-11.6375
▁confident	-11.6377
▁racing	-11.6377
▁chills	-11.6379
▁mentality	-11.638
▁avid	-11.6382
▁hayes	-11.6384
▁respectively	-11.6389
mostly	-11.6389
▁palma	-11.6394
cute	-11.6398
▁wakes	-11.6398
▁carell	-11.6399
▁psyche	-11.6402
▁ark	-11.6404
▁thrilled	-11.6406
▁shed	-11.6413
▁stretched	-11.642
▁nan	-11.6425
▁reflects	-11.6427
▁info	-11.6428
▁strings	-11.6429
ole	-11.6432
five	-11.6433
▁shu	-11.6436
▁examine	-11.6436
▁gre	-11.6437
▁boob	-11.644
smith	-11.644
▁eventual	-11.6441
driven	-11.6443
▁voted	-11.6447
▁lena	-11.645
without	-11.6453
▁verhoeven	-11.6453
▁bloom	-11.6453
▁continuing	-11.6453
▁hapless	-11.6453
▁misguided	-11.6453
▁olivia	-11.6453
▁mercy	-11.6453
▁paramount	-11.6453
▁infected	-11.6453
▁costello	-11.6453
▁finance	-11.6453
▁tempted	-11.6454
▁marries	-11.6454
▁collective	-11.6454
▁wright	-11.6454
▁nemesis	-11.6455
▁kramer	-11.6455
▁jess	-11.6455
▁assuming	-11.6456
▁russo	-11.6457
▁elite	-11.6457
▁absurdity	-11.646
camp	-11.6465
▁sellers	-11.6466
luc	-11.647
▁ruby	-11.6472
▁lind	-11.6472
▁healthy	-11.6473
▁employed	-11.6474
.00	-11.6474
▁difficulty	-11.6478
▁emerges	-11.6479
hm	-11.6481
▁sandy	-11.6481
▁mole	-11.6485
▁adapt	-11.6488
wind	-11.6489
▁discussing	-11.6493
▁shares	-11.6495
▁cameras	-11.6495
▁insists	-11.6496
▁minded	-11.65
girls	-11.65
izations	-11.6502
▁arch	-11.6504
▁raid	-11.6508
▁county	-11.651
▁mur	-11.6513
▁invest	-11.6518
max	-11.6523
bird	-11.6523
▁framed	-11.6524
▁visited	-11.6528
▁egypt	-11.653
▁admirable	-11.6531
▁energetic	-11.6531
▁gandhi	-11.6531
▁horizon	-11.6531
▁license	-11.6532
▁coffin	-11.6532
▁martian	-11.6532
▁eyre	-11.6532
▁hallmark	-11.6532
▁stallone	-11.6532
▁unrelated	-11.6534
▁preston	-11.6534
urg	-11.6534
▁dominic	-11.6535
▁leland	-11.6538
▁spur	-11.6538
▁owned	-11.6538
▁kline	-11.654
meaning	-11.654
▁filmmaking	-11.6544
▁winters	-11.6546
▁glowing	-11.6547
▁height	-11.6549
roo	-11.655
▁warden	-11.6554
▁vastly	-11.6556
▁fuller	-11.656
▁bert	-11.6564
........	-11.6571
▁tha	-11.6571
▁kerr	-11.6576
▁concepts	-11.6579
▁rides	-11.6583
▁hats	-11.6593
▁drain	-11.6598
#	-11.66
scope	-11.6601
scary	-11.6603
tier	-11.6606
▁debbie	-11.6611
▁eternity	-11.6611
▁persuade	-11.6611
▁terrified	-11.6611
▁sarcastic	-11.6611
▁deniro	-11.6611
▁whack	-11.6611
▁redneck	-11.6612
▁september	-11.6612
▁raising	-11.6612
ivity	-11.6613
▁diaz	-11.6614
coat	-11.6615
▁spout	-11.6616
▁frontier	-11.6616
▁roar	-11.6617
▁soup	-11.6617
▁christianity	-11.6618
▁sanders	-11.6619
▁tang	-11.662
dig	-11.6621
▁resembl	-11.6621
▁incidentally	-11.6621
▁canceled	-11.6623
▁speeches	-11.6626
utter	-11.6626
▁belle	-11.6627
itude	-11.6629
▁regards	-11.6632
▁assured	-11.6633
▁paintings	-11.6634
▁handling	-11.6634
▁bars	-11.6638
each	-11.6638
▁guaranteed	-11.6639
▁kra	-11.6646
▁orson	-11.6647
▁conventions	-11.6653
▁surroundings	-11.6654
▁traits	-11.6656
▁refers	-11.6661
▁separated	-11.6671
▁confuse	-11.6673
▁criticize	-11.6674
▁interpret	-11.6674
▁rant	-11.6678
▁reminder	-11.6678
une	-11.6678
▁enthusiastic	-11.6678
▁reform	-11.6678
▁rapid	-11.668
oi	-11.6682
cia	-11.6683
found	-11.6689
▁foundation	-11.669
▁anticipation	-11.6691
▁eagle	-11.6691
▁legitimate	-11.6691
▁python	-11.6691
▁sydney	-11.6691
▁contempt	-11.6691
▁fabric	-11.6691
▁groan	-11.6691
▁hopkins	-11.6691
▁abraham	-11.6691
▁lavish	-11.6691
▁shatner	-11.6691
▁fetish	-11.6691
▁jaded	-11.6691
▁beverly	-11.6691
▁activity	-11.6693
▁clive	-11.6693
▁taut	-11.6694
playing	-11.6694
actually	-11.6695
▁singers	-11.6696
▁connor	-11.6697
print	-11.6698
▁forgiven	-11.67
▁critters	-11.6702
17	-11.6707
▁dam	-11.6709
▁comeback	-11.671
▁visitor	-11.671
▁blatantly	-11.6713
▁messy	-11.6714
ille	-11.6719
▁altered	-11.6722
along	-11.6724
▁operate	-11.673
ala	-11.6731
▁skits	-11.674
▁rises	-11.6744
▁releases	-11.6746
ifies	-11.6753
▁gab	-11.6754
▁ash	-11.6757
▁supreme	-11.6758
▁akin	-11.6762
winning	-11.6762
tina	-11.6763
however	-11.6763
fiction	-11.6764
▁vile	-11.6764
▁muni	-11.6765
office	-11.6768
▁rad	-11.6771
▁examination	-11.6772
▁immature	-11.6772
▁pfeiffer	-11.6772
▁polanski	-11.6772
▁razor	-11.6772
▁receiving	-11.6772
▁thieves	-11.6772
▁shelter	-11.6772
▁gambling	-11.6772
▁1996	-11.6772
▁recognizable	-11.6772
▁deserving	-11.6773
▁upside	-11.6773
▁grinch	-11.6773
▁homosexuality	-11.6774
▁hammy	-11.6774
▁polar	-11.6775
▁wrestler	-11.6777
▁bros	-11.6779
peter	-11.6783
▁juan	-11.6784
▁turd	-11.6797
▁evidently	-11.6797
▁israel	-11.6798
▁fay	-11.6799
▁boyle	-11.68
agged	-11.68
▁befriends	-11.6802
▁armor	-11.6811
sci	-11.6815
gram	-11.6823
▁mun	-11.6826
▁laser	-11.6827
▁records	-11.6828
▁betray	-11.6832
▁crop	-11.6833
▁construct	-11.6833
imo	-11.6837
second	-11.6843
▁claiming	-11.6843
▁mcg	-11.6844
▁goat	-11.6847
▁entering	-11.6847
▁1993	-11.6853
▁afghanistan	-11.6853
▁armstrong	-11.6853
▁gypsy	-11.6853
▁phenomenon	-11.6853
▁repulsive	-11.6853
▁ridicule	-11.6853
▁trigger	-11.6853
▁voodoo	-11.6853
▁youtube	-11.6853
▁headache	-11.6853
▁wendy	-11.6853
▁gilbert	-11.6853
▁gerard	-11.6854
▁suspension	-11.6854
▁btw	-11.6854
▁stamp	-11.6854
▁patron	-11.6854
▁lambert	-11.6855
▁firing	-11.6856
▁beatles	-11.6857
▁spice	-11.6857
▁satirical	-11.686
▁sticking	-11.6861
▁grateful	-11.6862
▁crow	-11.6864
▁lasting	-11.6866
▁$	-11.6867
▁remade	-11.6867
▁punches	-11.6868
▁abruptly	-11.6868
lib	-11.687
▁hatch	-11.6872
▁error	-11.6872
▁bio	-11.6877
▁melting	-11.6881
▁downey	-11.6891
▁defeated	-11.6891
▁admirer	-11.6891
know	-11.6894
▁fatale	-11.6899
▁mud	-11.6903
▁stumbles	-11.6904
▁hail	-11.6906
▁lam	-11.6906
ridge	-11.6909
▁layers	-11.6917
ground	-11.6917
▁attacking	-11.6918
▁anton	-11.6918
state	-11.6919
▁topics	-11.6919
▁;	-11.6926
jane	-11.6927
doo	-11.6929
▁insert	-11.6934
▁abortion	-11.6935
▁comprehend	-11.6935
▁destination	-11.6935
▁misfortune	-11.6935
▁opponent	-11.6935
▁pacific	-11.6935
▁shepherd	-11.6935
▁spear	-11.6935
▁substantial	-11.6935
▁senior	-11.6935
▁devito	-11.6935
▁restrained	-11.6935
▁spree	-11.6935
▁presume	-11.6935
▁telephone	-11.6935
▁splash	-11.6935
▁toronto	-11.6935
▁arrow	-11.6935
▁automatically	-11.6935
▁antonioni	-11.6936
▁shopping	-11.6937
▁limp	-11.6938
▁yep	-11.6939
▁bombs	-11.6943
▁slimy	-11.6948
▁publicity	-11.6948
▁victorian	-11.6948
sound	-11.695
path	-11.6951
▁1930'	-11.6951
eller	-11.6957
▁mates	-11.6962
▁seed	-11.6962
▁answered	-11.697
▁tolerate	-11.697
▁$3	-11.6972
▁whi	-11.6976
▁mixing	-11.6976
mind	-11.6979
▁coin	-11.698
tail	-11.6984
eating	-11.6985
toole	-11.6985
▁planes	-11.6988
craft	-11.6988
brain	-11.6997
▁poo	-11.7001
▁eh	-11.7005
▁indicat	-11.7007
william	-11.7007
western	-11.7009
moral	-11.701
▁logan	-11.7014
▁viva	-11.7015
▁enlighten	-11.7017
▁1969	-11.7017
▁gloria	-11.7017
▁preminger	-11.7017
▁provoke	-11.7017
▁novak	-11.7017
▁rangers	-11.7017
▁stefan	-11.7018
▁crank	-11.7018
▁ollie	-11.7018
▁departure	-11.7018
▁clinic	-11.7018
▁stairs	-11.7018
▁snuff	-11.7019
gel	-11.7021
jean	-11.7021
▁mortal	-11.7022
noir	-11.7024
▁clu	-11.703
▁fry	-11.7031
▁boots	-11.7033
▁tactics	-11.7034
▁billed	-11.7043
▁remark	-11.7043
▁ul	-11.7044
late	-11.7048
▁curly	-11.7052
▁mick	-11.7059
▁diner	-11.7061
▁towers	-11.7065
▁bum	-11.707
▁portrayals	-11.707
▁hk	-11.7075
▁log	-11.7078
▁pump	-11.7079
▁boost	-11.7081
▁lau	-11.7081
▁bandit	-11.7083
adventure	-11.7091
ose	-11.7095
▁intentional	-11.71
road	-11.71
▁1971	-11.7101
▁1984	-11.7101
▁definitive	-11.7101
▁lecture	-11.7101
▁seductive	-11.7101
▁spencer	-11.7101
▁unimaginative	-11.7101
▁unsuspecting	-11.7101
▁nolte	-11.7101
▁justified	-11.7101
▁natives	-11.7101
▁backwards	-11.7101
▁1920	-11.7101
▁incest	-11.7101
▁privilege	-11.7102
▁cohen	-11.7102
▁bucket	-11.7103
▁proving	-11.7103
▁dana	-11.7105
▁terminator	-11.7105
▁brick	-11.7108
loy	-11.7109
▁conscious	-11.711
gore	-11.7113
▁tru	-11.712
thin	-11.712
▁nest	-11.7121
▁translated	-11.7122
full	-11.7123
▁tech	-11.7124
▁residents	-11.7124
▁flashy	-11.7129
▁leno	-11.7129
witted	-11.7133
▁asset	-11.7133
▁sales	-11.7135
▁iv	-11.7135
▁conveys	-11.7136
▁baron	-11.7136
matt	-11.7138
▁coupled	-11.7138
▁peaceful	-11.7139
▁taped	-11.7141
▁daniels	-11.7142
phone	-11.7148
▁depends	-11.7149
▁morals	-11.7157
▁nails	-11.7162
▁outing	-11.7163
"!	-11.7166
gang	-11.7167
▁practical	-11.7172
▁ugh	-11.7174
connect	-11.7175
▁hello	-11.7179
▁sail	-11.7184
▁surrender	-11.7185
▁amitabh	-11.7185
▁fierce	-11.7185
▁ghetto	-11.7185
▁independence	-11.7185
▁mesmerizing	-11.7185
▁recognise	-11.7185
▁dallas	-11.7185
▁duration	-11.7185
▁hepburn	-11.7185
▁inhabitants	-11.7185
▁imitate	-11.7185
▁thug	-11.7185
▁haines	-11.7185
▁lynn	-11.7185
▁dubious	-11.7185
▁referring	-11.7186
▁atlantis	-11.7187
▁visions	-11.7188
▁ethan	-11.7188
▁potter	-11.7189
****	-11.7192
▁talkie	-11.7196
▁uncut	-11.7197
pun	-11.7206
▁approaches	-11.7209
▁edie	-11.7209
▁arise	-11.721
rag	-11.7212
▁mentions	-11.7214
▁hoo	-11.7218
▁siblings	-11.7218
code	-11.7218
▁caricatures	-11.7218
mari	-11.7226
▁realization	-11.7231
neill	-11.7237
produced	-11.7237
▁glen	-11.724
▁nerves	-11.7242
atory	-11.7247
▁linger	-11.7251
▁cheerful	-11.7254
producer	-11.7259
▁flower	-11.7263
hit	-11.7267
▁abstract	-11.727
▁caution	-11.727
▁despicable	-11.727
▁eisenstein	-11.727
▁monroe	-11.727
▁scorsese	-11.727
▁swayze	-11.727
▁	-11.727
▁tolerable	-11.727
▁bonnie	-11.727
▁boston	-11.7272
▁commentator	-11.7273
▁poll	-11.728
▁assert	-11.728
▁modesty	-11.7283
breaking	-11.7287
▁tossed	-11.7291
▁paulie	-11.7292
▁fury	-11.7292
▁signal	-11.7294
▁politicians	-11.7295
front	-11.7295
▁nerve	-11.7298
▁addicted	-11.7298
inter	-11.73
trip	-11.73
heads	-11.7304
ace	-11.7313
▁poet	-11.7314
▁approaching	-11.7315
▁cannes	-11.7321
▁outright	-11.7327
▁survives	-11.7328
▁gained	-11.7331
▁drab	-11.7335
original	-11.7342
▁fortunate	-11.7342
▁strict	-11.7342
▁triple	-11.7345
▁luis	-11.7351
▁escaping	-11.7355
▁rebellious	-11.7355
▁visconti	-11.7355
▁sensible	-11.7355
▁scandal	-11.7355
▁swift	-11.7355
▁limitations	-11.7355
▁ladder	-11.7356
▁stunningly	-11.7356
▁election	-11.7357
▁adjust	-11.7358
plane	-11.7358
▁malone	-11.7358
▁jury	-11.7358
▁strengths	-11.736
▁formed	-11.7361
▁masks	-11.7361
▁stardom	-11.7362
▁glued	-11.7364
▁artwork	-11.7364
▁threatened	-11.7365
▁computers	-11.7366
▁flock	-11.7368
▁infant	-11.7371
▁exec	-11.7372
▁evans	-11.7376
▁freaks	-11.7378
▁convicted	-11.7378
▁101	-11.7383
tig	-11.7385
▁iconic	-11.7386
-1	-11.7395
▁july	-11.7402
▁linked	-11.7405
▁miner	-11.7406
▁wounds	-11.7408
▁endlessly	-11.7408
▁windows	-11.741
▁expectation	-11.7414
▁belly	-11.7415
▁longest	-11.7415
▁select	-11.742
▁owners	-11.7423
being	-11.7426
▁rh	-11.7428
▁depict	-11.7429
blue	-11.7431
filled	-11.7431
three	-11.7431
▁commenting	-11.7438
▁dexter	-11.7441
▁almighty	-11.7441
▁arriving	-11.7441
▁choosing	-11.7441
▁czech	-11.7441
▁hybrid	-11.7441
▁medieval	-11.7441
▁preserve	-11.7441
▁rampage	-11.7441
▁transplant	-11.7441
▁underwear	-11.7441
▁chunk	-11.7442
▁kahn	-11.7442
▁aircraft	-11.7442
▁melville	-11.7442
▁smug	-11.7443
▁wesley	-11.7445
▁liar	-11.7447
▁capt	-11.7448
▁flo	-11.745
▁prof	-11.7454
▁conveniently	-11.7454
▁stumble	-11.7455
lead	-11.7464
▁russ	-11.7465
▁entirety	-11.7465
▁anytime	-11.7471
hhh	-11.7471
throw	-11.7476
scene	-11.7481
▁pc	-11.7483
▁!!	-11.7485
▁revere	-11.7486
▁bach	-11.7487
▁barber	-11.7489
▁sitcoms	-11.7493
▁connections	-11.7494
▁anyhow	-11.7495
ride	-11.7495
▁rats	-11.7497
▁mins	-11.7501
lton	-11.7502
mir	-11.7502
▁cooking	-11.7503
▁aboard	-11.7505
ease	-11.7519
fashioned	-11.7521
▁brenda	-11.7524
▁trivia	-11.7525
▁casey	-11.7527
▁1973	-11.7528
▁1982	-11.7528
▁chamber	-11.7528
▁cumming	-11.7528
▁exploding	-11.7528
▁havoc	-11.7528
▁disabled	-11.7528
▁thirst	-11.7528
▁draft	-11.7528
▁4)	-11.7528
▁mannerisms	-11.7528
▁neurotic	-11.7529
▁informative	-11.7529
▁pepper	-11.7529
▁diverse	-11.753
▁banter	-11.753
▁fishing	-11.753
▁weave	-11.753
▁copied	-11.7531
▁underdog	-11.7532
▁smiles	-11.7534
▁syn	-11.7535
▁portman	-11.7535
▁meyer	-11.7538
▁morph	-11.754
▁warming	-11.7542
▁showtime	-11.7543
▁outdoor	-11.755
fred	-11.7551
▁incidents	-11.7553
▁meantime	-11.7555
classic	-11.7557
▁breast	-11.7563
▁boasts	-11.7569
▁mah	-11.7571
half	-11.7571
▁gr	-11.7572
opera	-11.758
bil	-11.7582
▁beau	-11.7586
▁evoke	-11.7587
▁reports	-11.7589
nell	-11.7592
*****	-11.7601
▁caper	-11.7604
▁dates	-11.7605
mystery	-11.7606
▁bog	-11.7615
▁cassidy	-11.7616
▁controversy	-11.7616
▁lunatic	-11.7616
▁medicine	-11.7616
▁merchant	-11.7616
▁scrooge	-11.7616
▁swamp	-11.7616
▁implied	-11.7616
▁isolation	-11.7616
▁1978	-11.7616
▁slug	-11.7616
▁existential	-11.7616
▁chopped	-11.7617
▁taboo	-11.7617
four	-11.7619
▁ker	-11.7619
▁authenticity	-11.762
▁rice	-11.7622
▁lester	-11.7623
▁*1/2	-11.7623
▁rumor	-11.7625
▁dec	-11.763
▁handles	-11.7633
▁moan	-11.7634
▁whine	-11.7634
▁dumber	-11.7635
▁torch	-11.7638
▁screenwriters	-11.7638
▁demonstrate	-11.7639
▁cleaning	-11.7643
▁tremendously	-11.7645
ré	-11.7646
later	-11.7648
▁louise	-11.7651
▁readers	-11.7656
▁fulfill	-11.7664
▁oc	-11.7674
force	-11.7674
▁weep	-11.7677
▁deem	-11.7679
▁regularly	-11.7681
ata	-11.7683
▁defie	-11.7684
▁evolve	-11.7686
hall	-11.7688
▁relie	-11.7688
▁informed	-11.769
number	-11.7694
normal	-11.7694
▁accounts	-11.7699
iya	-11.7702
▁rescued	-11.7702
▁crashing	-11.7704
▁bounce	-11.7704
▁brooding	-11.7704
▁deputy	-11.7704
▁horrified	-11.7704
▁jersey	-11.7704
▁paranoid	-11.7704
▁scorpion	-11.7704
▁subtext	-11.7704
▁tendency	-11.7704
▁unsatisfying	-11.7704
▁aztec	-11.7704
▁mutual	-11.7704
▁anxious	-11.7704
▁injustice	-11.7704
▁ingrid	-11.7704
▁manifest	-11.7704
▁sorrow	-11.7704
▁misunderstand	-11.7705
▁studied	-11.7705
▁rhett	-11.7705
▁shrink	-11.7705
▁1988	-11.7705
▁pornography	-11.7705
▁booth	-11.7705
▁mitch	-11.7705
▁thorn	-11.7705
▁garland	-11.7707
▁float	-11.7707
▁christine	-11.7707
▁mencia	-11.7708
▁unconscious	-11.7708
▁coke	-11.7709
▁commits	-11.7711
▁brainless	-11.7717
etc	-11.7719
▁wanders	-11.7719
▁funding	-11.7721
▁combines	-11.7728
ore	-11.7731
lau	-11.7731
▁skit	-11.7731
▁enhanced	-11.7732
▁wan	-11.7732
▁attended	-11.7733
▁rang	-11.7734
▁rewarding	-11.7735
garde	-11.7747
▁confronted	-11.7748
close	-11.7749
▁sopranos	-11.7758
▁render	-11.7761
▁pipe	-11.777
▁oldest	-11.7778
▁fools	-11.7779
▁convenient	-11.7783
typical	-11.7783
indulgent	-11.7783
cheek	-11.7786
aker	-11.7787
▁asia	-11.7788
▁cracking	-11.7788
▁wang	-11.779
mission	-11.779
▁choke	-11.7791
mean	-11.7792
▁1939	-11.7794
▁filter	-11.7794
▁galaxy	-11.7794
▁kurosawa	-11.7794
▁netflix	-11.7794
▁physics	-11.7794
▁ricci	-11.7794
▁qualify	-11.7794
▁revisit	-11.7794
▁mccoy	-11.7794
▁overbearing	-11.7794
▁reagan	-11.7794
▁commission	-11.7794
▁travis	-11.7794
▁cater	-11.7795
▁ashley	-11.7795
▁imaginary	-11.7795
▁palance	-11.7796
▁riff	-11.7798
▁housewife	-11.7798
▁lethal	-11.7801
fel	-11.7804
▁divided	-11.7805
lessness	-11.7809
▁nope	-11.7812
▁temper	-11.7813
▁horny	-11.7814
▁hai	-11.7818
jim	-11.7819
ography	-11.7819
▁approached	-11.782
▁neatly	-11.7827
▁divorced	-11.7828
▁$5	-11.783
jan	-11.7832
▁moe	-11.7834
▁corey	-11.7835
▁mish	-11.784
▁grabbe	-11.7847
▁beth	-11.785
▁nations	-11.7857
▁grandma	-11.7857
▁convention	-11.7864
▁celebrate	-11.7866
▁delicious	-11.787
▁token	-11.7871
professional	-11.7874
despite	-11.7874
▁populate	-11.7874
▁barb	-11.7876
final	-11.7883
▁1981	-11.7884
▁destined	-11.7884
▁harrowing	-11.7884
▁wheelchair	-11.7884
▁bennett	-11.7884
▁sherlock	-11.7884
▁kansas	-11.7884
▁randolph	-11.7884
▁goodbye	-11.7884
▁phase	-11.7884
▁scariest	-11.7884
▁laurence	-11.7885
▁satisfaction	-11.7885
▁posing	-11.7886
▁unnatural	-11.7887
▁hides	-11.7888
crack	-11.7889
▁sly	-11.789
▁downfall	-11.7892
▁published	-11.7892
angel	-11.7893
▁cartoonish	-11.7895
▁fiancée	-11.7897
▁bass	-11.7897
▁youthful	-11.7897
▁cries	-11.7897
▁lois	-11.7898
▁gum	-11.7902
70	-11.7902
▁selected	-11.7903
osi	-11.7904
▁reject	-11.7907
▁superstar	-11.7908
▁disguised	-11.7912
▁colleagues	-11.7913
▁pursued	-11.7914
store	-11.7914
▁sting	-11.7916
rang	-11.7922
▁iran	-11.7924
▁handy	-11.7927
▁lowe	-11.793
▁instruct	-11.7932
▁billion	-11.7935
▁sinking	-11.7936
▁accepting	-11.7936
▁trials	-11.7939
▁invent	-11.7939
▁frances	-11.7941
▁pub	-11.7948
▁resolve	-11.7957
▁relentless	-11.7961
▁literal	-11.7961
▁zen	-11.7963
▁carla	-11.7963
▁affleck	-11.7975
▁bimbo	-11.7975
▁rainbow	-11.7975
▁preparing	-11.7975
▁shield	-11.7975
▁spouse	-11.7975
▁diminish	-11.7975
▁incapable	-11.7975
▁tcm	-11.7975
▁1945	-11.7975
▁honour	-11.7975
spirited	-11.7975
▁plug	-11.7975
▁ants	-11.7976
▁screwball	-11.7976
▁segal	-11.7976
▁bryan	-11.7977
▁reliable	-11.7977
▁bend	-11.7978
▁cents	-11.798
▁straw	-11.798
▁shotgun	-11.798
▁subway	-11.7981
▁saddle	-11.7982
abo	-11.7986
▁sham	-11.7986
sexual	-11.7988
▁factors	-11.7992
▁stalking	-11.7997
temp	-11.8
▁cameraman	-11.8003
▁verge	-11.8004
▁lionel	-11.8004
▁switched	-11.8007
▁kent	-11.8011
▁sf	-11.8011
▁harp	-11.8012
okay	-11.8012
▁cliches	-11.8014
▁croc	-11.802
▁rainy	-11.8024
uh	-11.8031
▁delightfully	-11.8032
▁delighted	-11.8034
▁breathe	-11.8036
care	-11.8037
▁nat	-11.8046
▁colours	-11.8046
▁praised	-11.8047
▁freaking	-11.8049
ured	-11.8049
▁cram	-11.805
▁deliberate	-11.8053
ridden	-11.8056
brother	-11.8057
since	-11.8059
plus	-11.8061
▁ustinov	-11.8066
▁implication	-11.8066
▁improbable	-11.8066
▁inclusion	-11.8066
▁insurance	-11.8066
▁overblown	-11.8066
▁perverse	-11.8066
▁casino	-11.8066
▁gundam	-11.8066
▁misfit	-11.8067
▁decay	-11.8067
▁stabbed	-11.8067
▁cbs	-11.8068
▁wimp	-11.8068
▁undercover	-11.8069
▁pathos	-11.8069
▁ebert	-11.807
▁realistically	-11.8079
▁growth	-11.808
lift	-11.8083
▁sixth	-11.8084
▁brush	-11.8085
▁wider	-11.8094
▁porter	-11.8094
▁deck	-11.8101
????	-11.8102
$$	-11.8106
▁longing	-11.8117
▁boast	-11.8117
▁safely	-11.8119
▁artsy	-11.8125
▁comparisons	-11.8125
walk	-11.8126
▁junkie	-11.8135
▁doris	-11.8136
▁nicolas	-11.8139
race	-11.8144
present	-11.8145
culture	-11.8152
▁resurrect	-11.8157
▁applied	-11.8159
▁dixon	-11.8159
▁inexplicable	-11.8159
▁paltrow	-11.8159
▁bishop	-11.8159
▁collins	-11.8159
▁darwin	-11.8159
▁outdated	-11.8159
▁senator	-11.816
▁predictably	-11.816
▁popping	-11.8163
▁claw	-11.8164
▁depart	-11.8164
▁kiddie	-11.8167
▁advertised	-11.8167
▁educated	-11.8168
▁ky	-11.8169
▁nominations	-11.8177
bly	-11.8179
▁additionally	-11.8182
▁outsider	-11.8182
▁promoted	-11.8189
▁affects	-11.8191
▁contributed	-11.8192
quality	-11.8195
▁stalk	-11.8196
▁hon	-11.8202
phe	-11.8203
ibly	-11.8205
▁elliott	-11.8208
▁lastly	-11.8209
vor	-11.821
▁mack	-11.821
iko	-11.8217
ancy	-11.8226
▁goals	-11.823
better	-11.8246
▁korea	-11.8248
team	-11.8252
▁basinger	-11.8252
▁distributor	-11.8252
▁mediocrity	-11.8252
▁curtain	-11.8252
▁dazzling	-11.8252
▁participant	-11.8252
▁entries	-11.8252
▁historian	-11.8252
▁rhyme	-11.8252
▁unwilling	-11.8252
▁meandering	-11.8252
▁spoon	-11.8252
▁retrieve	-11.8253
▁replies	-11.8253
▁insect	-11.8253
▁isabelle	-11.8254
iro	-11.8254
▁tomatoes	-11.8254
▁adaption	-11.8255
▁questioning	-11.8256
▁cobra	-11.8257
▁alison	-11.8258
▁unsure	-11.826
▁daylight	-11.8268
▁vibe	-11.8268
▁playful	-11.8269
▁legends	-11.8276
▁bitten	-11.828
▁realities	-11.8286
arian	-11.8288
▁partners	-11.8291
▁avoiding	-11.8292
▁lib	-11.8292
▁reid	-11.8294
▁sensation	-11.8294
pur	-11.8302
▁votes	-11.8302
▁swearing	-11.8306
▁iq	-11.8309
▁balanced	-11.8309
▁seedy	-11.8313
bag	-11.8314
▁users	-11.8315
▁indifferent	-11.8318
▁slot	-11.8318
▁budd	-11.8319
eric	-11.832
▁ei	-11.8322
▁wisely	-11.8326
▁immense	-11.8334
▁interviewed	-11.8336
everything	-11.8337
▁revel	-11.8339
▁carr	-11.8342
▁1994	-11.8347
▁complement	-11.8347
▁depardieu	-11.8347
▁pedestrian	-11.8347
▁relevance	-11.8347
▁schneider	-11.8347
▁stylized	-11.8347
▁undeniably	-11.8347
▁vcr	-11.8347
▁hesitate	-11.8347
▁chronicles	-11.8347
▁fraud	-11.8347
▁percent	-11.8349
▁garage	-11.8349
▁homicide	-11.835
▁mobile	-11.8353
formed	-11.8353
▁organized	-11.8355
▁dramatically	-11.8357
▁bombing	-11.836
▁noticeable	-11.8361
▁characteristics	-11.8365
▁campus	-11.8367
▁amir	-11.837
▁ep	-11.837
tell	-11.8371
▁sane	-11.8373
▁clarke	-11.8375
▁subsequently	-11.8377
▁noah	-11.8381
▁morons	-11.8389
▁jose	-11.8393
▁sober	-11.8395
cum	-11.8396
▁frames	-11.8397
18	-11.8398
▁vignettes	-11.8401
▁archive	-11.8409
door	-11.8417
▁censor	-11.8423
▁declare	-11.8424
▁math	-11.8425
quin	-11.8425
▁punish	-11.8426
▁toni	-11.8427
▁meek	-11.8429
▁cracker	-11.843
▁dock	-11.8432
level	-11.8433
▁contradict	-11.8434
▁intensely	-11.8434
▁pol	-11.8436
▁lili	-11.8437
▁excess	-11.8437
▁factual	-11.844
▁1959	-11.8442
▁cerebral	-11.8442
▁determination	-11.8442
▁experiencing	-11.8442
▁manipulation	-11.8442
▁swept	-11.8442
▁unconventional	-11.8442
▁gigantic	-11.8442
▁istanbul	-11.8442
▁kermit	-11.8442
▁repressed	-11.8442
▁graveyard	-11.8442
▁glamorous	-11.8443
▁creek	-11.8443
▁adrian	-11.8443
▁moses	-11.8443
▁landmark	-11.8443
▁pirates	-11.8444
▁eyebrow	-11.8444
▁sought	-11.8444
▁accessible	-11.8444
▁jules	-11.8444
▁seeming	-11.8446
▁profile	-11.8447
rail	-11.8447
cock	-11.845
▁mik	-11.8451
▁undermine	-11.8452
due	-11.8457
▁suspected	-11.8458
▁sec	-11.8466
▁distinguish	-11.8466
▁exploits	-11.8471
▁convinces	-11.848
tale	-11.8481
▁aiming	-11.8495
▁pounds	-11.8495
▁hippies	-11.8496
▁conveyed	-11.8499
▁embarrassingly	-11.8499
▁employee	-11.8503
▁inflict	-11.8505
▁mala	-11.8506
▁dorm	-11.851
omi	-11.8512
▁encountered	-11.8516
boys	-11.8518
every	-11.8521
tory	-11.8522
▁indiana	-11.8528
ghost	-11.8528
shirt	-11.8528
midst	-11.8528
▁jew	-11.8533
▁villa	-11.8534
▁stella	-11.8535
ploitation	-11.8537
▁lundgren	-11.8538
▁pianist	-11.8538
▁redundant	-11.8538
ö	-11.8538
▁vintage	-11.8538
▁georgia	-11.8538
▁whisper	-11.8538
▁harvest	-11.8538
▁repair	-11.8539
leg	-11.8539
▁madsen	-11.8543
▁fiend	-11.8544
▁joanna	-11.8545
▁sanity	-11.8546
▁mae	-11.8547
▁poses	-11.8549
▁payoff	-11.855
▁absorbing	-11.855
▁inspirational	-11.855
▁parallels	-11.8552
rough	-11.8553
▁rebels	-11.8554
▁>	-11.8558
▁sweeping	-11.8559
▁distracted	-11.8562
▁retro	-11.8562
▁billing	-11.8563
▁everett	-11.8568
▁coma	-11.8575
▁shades	-11.8576
▁gunfight	-11.8576
▁timon	-11.8578
▁holm	-11.8581
▁plotting	-11.8582
▁refugee	-11.8589
hen	-11.8592
▁lon	-11.8599
▁immigrant	-11.8601
▁thumb	-11.8602
▁gestures	-11.8606
▁mold	-11.8612
stead	-11.8617
▁neglect	-11.8617
▁locate	-11.8618
▁excruciating	-11.8622
tony	-11.8623
effect	-11.8625
deep	-11.8631
remember	-11.8632
▁flimsy	-11.8635
▁verdict	-11.8635
▁summarize	-11.8635
▁psychologist	-11.8635
▁warehouse	-11.8635
▁aftermath	-11.8635
▁cecil	-11.8635
▁turtle	-11.8635
▁macarthur	-11.8635
▁ordeal	-11.8635
▁1989	-11.8636
▁ceiling	-11.8636
▁branch	-11.8636
▁admission	-11.8636
▁lizard	-11.8636
term	-11.8636
▁begging	-11.8637
▁distinctive	-11.8637
▁nathan	-11.8637
▁otto	-11.8638
▁alvin	-11.8638
▁redford	-11.8639
▁crippled	-11.8641
▁lightning	-11.8643
▁scout	-11.8644
▁holland	-11.8645
▁heath	-11.8647
▁sirk	-11.8647
cinema	-11.865
▁'60	-11.8651
▁viola	-11.8653
▁truthful	-11.8654
▁enthusiast	-11.8656
▁nam	-11.8657
▁midst	-11.8658
▁hmmm	-11.8658
▁gates	-11.866
▁wipe	-11.866
▁loan	-11.8667
▁sack	-11.867
nan	-11.8673
▁damaged	-11.8675
▁dumped	-11.8676
▁classy	-11.8695
▁colleague	-11.8701
▁sparks	-11.8709
▁pas	-11.871
▁sweep	-11.8712
▁condemn	-11.8715
▁janet	-11.8721
▁spec	-11.8722
▁expand	-11.8722
▁scored	-11.8722
children	-11.8724
▁spi	-11.8726
must	-11.873
▁arguing	-11.8733
▁association	-11.8733
▁assumption	-11.8733
▁bachelor	-11.8733
▁believability	-11.8733
▁pizza	-11.8733
▁soderbergh	-11.8733
▁spontaneous	-11.8733
▁balloon	-11.8733
▁monkees	-11.8733
▁complications	-11.8734
▁unattractive	-11.8734
▁tokyo	-11.8734
▁nauseating	-11.8734
▁unfamiliar	-11.8734
▁barrier	-11.8734
▁rugby	-11.8734
▁lumet	-11.8734
▁slapped	-11.8734
▁shelley	-11.8734
▁lighter	-11.8735
▁noteworthy	-11.8735
▁knightley	-11.8736
▁theories	-11.8737
▁eater	-11.8737
▁wink	-11.8738
ée	-11.8738
▁polite	-11.8738
▁update	-11.8739
▁guardian	-11.874
▁eyeball	-11.874
▁possesses	-11.8741
▁duff	-11.8742
▁chin	-11.8743
▁reviewed	-11.8744
▁homo	-11.8745
▁photographs	-11.8751
▁webb	-11.8756
cover	-11.8757
▁masterfully	-11.8762
flo	-11.8763
▁mechanic	-11.8769
▁chucky	-11.877
▁fro	-11.8771
▁improv	-11.8776
▁gaps	-11.8778
ello	-11.8784
▁carson	-11.8793
▁zu	-11.8794
▁vow	-11.8796
▁cheaply	-11.8798
▁barn	-11.88
▁politician	-11.8802
▁shifts	-11.8803
▁skilled	-11.8804
▁beef	-11.8809
▁200	-11.8814
▁manipulate	-11.8814
▁flowers	-11.8815
▁extend	-11.8816
affe	-11.8822
breed	-11.8823
elect	-11.8828
lane	-11.883
▁republic	-11.8831
rim	-11.8832
▁sleeve	-11.8832
▁1987	-11.8832
▁arquette	-11.8832
▁carnival	-11.8832
▁collaboration	-11.8832
▁corridor	-11.8832
▁macabre	-11.8832
▁spectator	-11.8832
▁understatement	-11.8832
▁unsympathetic	-11.8832
▁tattoo	-11.8832
esquire	-11.8832
▁chemical	-11.8832
▁tolerance	-11.8832
▁reckless	-11.8832
▁vivian	-11.8833
▁1998	-11.8833
▁anguish	-11.8833
▁whining	-11.8833
▁breakfast	-11.8833
▁darren	-11.8833
▁void	-11.8835
▁sentimentality	-11.8836
▁quasi	-11.8837
▁protection	-11.8838
▁secure	-11.8841
▁reserved	-11.8842
▁inmates	-11.8843
▁erase	-11.8846
▁clouds	-11.8846
▁filthy	-11.8846
▁brazil	-11.8847
▁novelty	-11.8851
▁heels	-11.8856
▁tormented	-11.8856
▁whoopi	-11.887
▁mira	-11.887
files	-11.8872
▁sheep	-11.8883
▁weaker	-11.8884
him	-11.8884
ific	-11.8891
▁hur	-11.8901
▁figur	-11.8902
scream	-11.8903
▁finishing	-11.8903
▁kir	-11.8908
edge	-11.891
▁pervert	-11.8916
▁speaker	-11.8917
owed	-11.8922
frank	-11.8922
▁reno	-11.8924
mba	-11.8924
bob	-11.8925
▁bias	-11.8926
saw	-11.8928
osa	-11.8932
demon	-11.8932
í	-11.8932
▁blossom	-11.8932
▁estranged	-11.8932
▁granger	-11.8932
▁miranda	-11.8932
▁electronic	-11.8932
▁slum	-11.8932
▁lucille	-11.8933
▁bacall	-11.8933
▁terminal	-11.8933
▁motif	-11.8933
▁comprise	-11.8934
▁:-)	-11.8935
▁potent	-11.8935
▁agony	-11.8937
▁intact	-11.8937
▁joyce	-11.8939
▁bleed	-11.894
▁ripoff	-11.894
▁romanian	-11.8941
▁promptly	-11.8945
▁cock	-11.8949
▁chow	-11.8951
?!?!	-11.8956
▁stalker	-11.896
▁judged	-11.8961
pec	-11.8961
▁rewarded	-11.8962
▁texture	-11.8964
phon	-11.8966
grand	-11.8966
▁dino	-11.8967
▁profoundly	-11.8969
ipped	-11.8969
▁freaky	-11.897
▁raven	-11.897
waiting	-11.8971
▁fab	-11.8973
▁kil	-11.8978
▁seasoned	-11.8985
▁arguments	-11.8986
...........	-11.8987
▁frat	-11.8989
rative	-11.8989
▁shameless	-11.8996
▁origins	-11.9015
▁tyra	-11.9016
▁gloss	-11.9024
ova	-11.9028
hill	-11.9033
▁1974	-11.9033
▁fragile	-11.9033
▁kaufman	-11.9033
▁lupino	-11.9033
▁phoenix	-11.9033
▁vaughn	-11.9033
▁werewolves	-11.9033
▁monitor	-11.9033
▁vanessa	-11.9033
▁mimic	-11.9033
▁kinski	-11.9034
▁regain	-11.9034
▁murky	-11.9034
▁fritz	-11.9034
▁hawn	-11.9034
▁jolie	-11.9034
▁skinny	-11.9035
▁edison	-11.9035
▁sharon	-11.9035
▁manic	-11.9036
▁cease	-11.9036
▁roam	-11.9038
▁distinction	-11.9038
▁weaver	-11.904
▁exclusively	-11.904
▁judgement	-11.9043
▁dumbest	-11.9047
▁norton	-11.905
▁goldie	-11.905
▁lex	-11.9051
▁quo	-11.9051
▁blamed	-11.9051
mul	-11.9053
▁cloth	-11.9055
▁tara	-11.9055
▁betrayed	-11.9056
▁joint	-11.9061
▁existing	-11.9061
cult	-11.9063
sister	-11.9063
▁gathering	-11.9069
▁locke	-11.9069
aaaa	-11.9073
▁affecting	-11.9075
reality	-11.9075
▁mocking	-11.9077
▁feeding	-11.9083
▁cherish	-11.9084
sick	-11.909
▁decid	-11.9091
need	-11.9097
▁preach	-11.9101
▁goo	-11.9103
▁revolve	-11.9104
▁announce	-11.9105
natural	-11.9121
secret	-11.9125
▁gasp	-11.9127
▁dante	-11.9133
<	-11.9135
ü	-11.9135
▁gromit	-11.9135
▁hallucination	-11.9135
▁optimistic	-11.9135
▁turmoil	-11.9135
▁chaotic	-11.9135
▁sissy	-11.9135
▁dispatch	-11.9135
▁injury	-11.9135
▁kinnear	-11.9135
▁mourn	-11.9136
▁feeble	-11.9136
▁whiny	-11.9136
▁doyle	-11.9136
▁canyon	-11.9136
▁2008	-11.9136
▁efficient	-11.9137
▁replacement	-11.9138
▁zane	-11.9139
▁artistry	-11.9141
▁franklin	-11.9141
▁tickets	-11.915
▁interrupted	-11.9153
▁pairing	-11.9154
working	-11.9154
▁stripper	-11.9155
fect	-11.9157
14	-11.9159
▁sleepwalk	-11.9163
▁dashing	-11.9165
▁springer	-11.9165
▁sour	-11.9167
▁demonstrated	-11.9167
▁robertson	-11.9172
bear	-11.9172
▁ramon	-11.9184
▁admired	-11.9188
▁slaves	-11.9193
▁fuss	-11.9197
▁covering	-11.92
▁duel	-11.9205
▁slob	-11.9208
▁replay	-11.9208
▁likeable	-11.9209
brien	-11.9212
▁hind	-11.9214
title	-11.9215
▁flame	-11.9217
▁rail	-11.922
▁landed	-11.922
▁exc	-11.9226
ended	-11.9226
important	-11.9228
▁enable	-11.923
.99	-11.9238
▁chronic	-11.9238
▁stereo	-11.9238
▁1986	-11.9238
▁abomination	-11.9238
▁bloke	-11.9238
▁influential	-11.9238
▁psychedelic	-11.9238
▁streak	-11.9238
▁suppress	-11.9238
▁surgeon	-11.9238
▁unsuccessful	-11.9238
▁sweden	-11.9238
▁parrot	-11.9239
▁auteur	-11.9239
▁foremost	-11.9239
▁sergio	-11.9239
▁erupt	-11.9239
▁maximum	-11.9239
▁enigmatic	-11.9239
▁niven	-11.924
▁pod	-11.924
▁marlon	-11.9241
▁moo	-11.9241
▁consciousness	-11.9242
▁naughty	-11.9243
▁salesman	-11.9243
▁costner	-11.9243
▁chore	-11.9246
▁rory	-11.9246
▁assembled	-11.9248
▁remembering	-11.925
▁crooked	-11.9253
▁vance	-11.9255
▁boone	-11.9256
▁grier	-11.9256
?!?	-11.9262
▁severed	-11.9271
poor	-11.9272
▁sentences	-11.9273
▁exploited	-11.9274
▁raging	-11.9275
▁addressed	-11.9276
▁christy	-11.9277
early	-11.9277
▁wartime	-11.9282
▁stuffed	-11.9284
case	-11.9287
scenes	-11.9294
▁reflected	-11.9294
▁pap	-11.9298
▁farley	-11.93
▁reviewing	-11.9308
▁grit	-11.931
▁surfer	-11.9316
▁babes	-11.9318
▁robber	-11.9319
▁unusually	-11.9321
▁amaze	-11.9324
▁determine	-11.9325
believe	-11.9333
▁fontaine	-11.9343
▁innuendo	-11.9343
▁lansbury	-11.9343
▁malkovich	-11.9343
▁merciless	-11.9343
▁pakistan	-11.9343
▁plodding	-11.9343
▁sabotage	-11.9343
▁degenerate	-11.9343
▁voyeur	-11.9343
▁melody	-11.9343
▁restraint	-11.9343
▁battling	-11.9343
▁videotape	-11.9343
▁restrict	-11.9343
▁puppy	-11.9343
▁mythology	-11.9343
▁offense	-11.9343
▁sunset	-11.9344
▁marlow	-11.9345
▁consequently	-11.9345
▁90%	-11.9345
▁rio	-11.9345
▁romeo	-11.9351
▁spies	-11.9353
▁preacher	-11.9353
▁invade	-11.9356
▁acquired	-11.9357
▁offbeat	-11.9358
▁neglected	-11.9362
bro	-11.9363
▁flames	-11.9365
omb	-11.9367
▁!!!	-11.9367
▁eagerly	-11.9369
▁abbott	-11.9373
▁munch	-11.9389
▁cord	-11.9389
▁characteristic	-11.939
▁benny	-11.9391
mus	-11.9393
▁settled	-11.9396
▁rejects	-11.9397
▁imply	-11.9411
▁gill	-11.9415
▁tightly	-11.9415
▁mandy	-11.9429
▁heighten	-11.943
▁inherit	-11.943
▁ensue	-11.9432
▁witnessing	-11.9432
▁shameful	-11.9434
green	-11.9435
▁prompt	-11.9436
consider	-11.9438
dvd	-11.9438
rising	-11.9439
jones	-11.9442
national	-11.9444
▁sensual	-11.9447
^	-11.9448
▁admiration	-11.9448
▁capacity	-11.9448
▁clunky	-11.9448
▁cronenberg	-11.9448
▁daffy	-11.9448
▁fragment	-11.9448
▁ignoring	-11.9448
▁lopez	-11.9448
▁parodies	-11.9448
▁prologue	-11.9448
▁ritchie	-11.9448
▁rukh	-11.9448
▁athletic	-11.9448
▁gravity	-11.9448
▁varied	-11.9448
▁dietrich	-11.9448
▁sterling	-11.9448
▁casper	-11.9448
▁kilmer	-11.9448
▁groundbreaking	-11.9449
▁spew	-11.9449
▁captive	-11.9449
▁paycheck	-11.9449
▁mysteriously	-11.945
▁madison	-11.945
▁atomic	-11.9451
▁emmy	-11.9453
▁bava	-11.9456
▁crypt	-11.9459
▁excruciatingly	-11.9462
▁letdown	-11.9465
▁updated	-11.9468
▁outrage	-11.947
▁hysterically	-11.9482
▁resulted	-11.9486
▁faded	-11.9488
▁lara	-11.9488
▁enforc	-11.9494
▁discussed	-11.9494
▁newer	-11.9495
▁sync	-11.9496
▁boarding	-11.9498
▁complained	-11.9503
▁outcast	-11.9507
▁evokes	-11.9511
▁stable	-11.9513
def	-11.952
turned	-11.953
▁messing	-11.9534
▁breathing	-11.9535
▁convert	-11.9538
numbing	-11.9544
whatever	-11.9548
talent	-11.9548
drawn	-11.9549
▁cunning	-11.9554
jurassic	-11.9554
▁ambiguity	-11.9554
▁comparable	-11.9554
▁fodder	-11.9554
▁henchmen	-11.9554
▁manufactur	-11.9554
▁melissa	-11.9554
▁mermaid	-11.9554
▁pamela	-11.9554
▁peasant	-11.9554
▁pretension	-11.9554
▁salvation	-11.9554
▁sebastian	-11.9554
▁timberlake	-11.9554
▁uncanny	-11.9554
▁vigilante	-11.9554
▁essay	-11.9554
▁paragraph	-11.9555
▁dealers	-11.9555
▁array	-11.9555
▁monica	-11.9555
▁stride	-11.9555
▁hostile	-11.9556
▁fascist	-11.9557
▁frail	-11.9558
▁grayson	-11.9558
▁lump	-11.9559
▁joining	-11.9559
▁introducing	-11.956
▁nero	-11.9571
▁voiced	-11.9572
▁sniper	-11.9573
devil	-11.9574
▁patriotic	-11.9574
▁wai	-11.9577
gio	-11.9579
▁dominated	-11.958
▁rendering	-11.958
▁#2	-11.9582
▁vividly	-11.9583
▁crossed	-11.9585
▁defy	-11.9585
▁immigrants	-11.9592
return	-11.9596
strange	-11.9609
doing	-11.9612
▁marcel	-11.9618
treat	-11.9622
▁herbert	-11.9623
lover	-11.9629
cry	-11.963
▁gein	-11.9636
▁revolt	-11.964
▁spelling	-11.9641
▁interrupt	-11.9644
pity	-11.9649
▁starters	-11.9651
flick	-11.9652
girlfriend	-11.9653
▁300	-11.9656
million	-11.9656
▁suitabl	-11.9662
ä	-11.9662
▁cheadle	-11.9662
▁column	-11.9662
▁mannequin	-11.9662
▁pompous	-11.9662
▁rookie	-11.9662
▁subdued	-11.9662
▁lurking	-11.9662
▁crosby	-11.9662
▁barbarian	-11.9662
▁28	-11.9662
▁bittersweet	-11.9662
▁1936	-11.9662
▁representative	-11.9662
▁hooper	-11.9663
▁pbs	-11.9663
▁rodney	-11.9663
▁spray	-11.9663
▁burden	-11.9664
▁juliette	-11.9664
▁coburn	-11.9664
▁spotlight	-11.9664
▁pierre	-11.9667
▁sketches	-11.967
▁captivated	-11.9671
▁chef	-11.9672
track	-11.9672
▁villainous	-11.9673
▁momentum	-11.9677
▁bolt	-11.9679
▁latino	-11.968
▁"10	-11.9681
▁robbers	-11.9682
▁celebrated	-11.9683
▁chen	-11.9686
▁shawn	-11.9696
ego	-11.9698
▁lola	-11.9702
▁employees	-11.9702
yard	-11.9707
same	-11.9709
▁bridget	-11.971
▁$4	-11.971
lene	-11.9711
▁hardest	-11.9722
▁entertainer	-11.9724
hee	-11.9726
▁suggesting	-11.9729
▁believer	-11.9732
personal	-11.9736
▁;)	-11.9736
dale	-11.9742
▁sunk	-11.9743
▁reminding	-11.9757
▁bait	-11.9757
battle	-11.976
sweet	-11.9762
gee	-11.9763
▁sil	-11.9767
eff	-11.9768
▁claudi	-11.9769
around	-11.9769
▁willard	-11.977
▁slut	-11.977
▁attenborough	-11.9771
▁denouement	-11.9771
▁kristofferson	-11.9771
▁lieutenant	-11.9771
▁lombard	-11.9771
▁occurrence	-11.9771
▁penelope	-11.9771
▁prevail	-11.9771
▁clara	-11.9771
▁owl	-11.9771
▁elicit	-11.9771
▁compound	-11.9771
▁railroad	-11.9771
▁1976	-11.9771
▁motel	-11.9771
▁policy	-11.9771
▁shuttle	-11.9771
▁smuggle	-11.9771
▁vault	-11.9771
▁shylock	-11.9771
▁email	-11.9772
named	-11.9773
▁ninety	-11.9774
▁gloomy	-11.9775
▁barbra	-11.9775
▁instructor	-11.9776
▁patty	-11.9776
▁chaney	-11.9777
▁alicia	-11.9779
▁download	-11.978
▁kristin	-11.9783
▁stretches	-11.9785
▁pronounce	-11.9786
▁rounded	-11.9787
▁vanity	-11.9789
▁stud	-11.9792
▁omen	-11.9792
▁overboard	-11.9796
▁commend	-11.9804
▁hawke	-11.9806
▁bury	-11.9815
▁socially	-11.9816
▁wherever	-11.982
▁vir	-11.9821
▁daytime	-11.9821
mouthed	-11.9822
rp	-11.9823
▁merri	-11.9825
▁sporting	-11.9827
▁baddies	-11.9832
▁roughly	-11.9833
alia	-11.9833
▁lucio	-11.9841
▁gir	-11.9853
alan	-11.9858
serious	-11.9858
▁exhaust	-11.9862
▁shockingly	-11.9864
▁precise	-11.9867
dramatic	-11.9872
boring	-11.9873
▁consequence	-11.9874
loving	-11.9875
▁cape	-11.988
▁approve	-11.988
▁cocaine	-11.988
▁dynamite	-11.988
▁excellence	-11.988
▁feminine	-11.988
▁firth	-11.988
▁fuzzy	-11.988
▁melancholy	-11.988
▁misunderstood	-11.988
▁monotonous	-11.988
▁recipe	-11.988
▁releasing	-11.988
▁sensibility	-11.988
▁carnage	-11.988
▁detroit	-11.988
▁fiennes	-11.988
▁salvage	-11.988
beau	-11.988
▁temptation	-11.988
▁sophie	-11.988
▁framing	-11.988
▁hawaii	-11.988
baby	-11.9881
▁resistance	-11.9882
▁glove	-11.9882
▁underdeveloped	-11.9882
▁bearing	-11.9882
▁shanghai	-11.9883
▁ghoulies	-11.9883
▁committing	-11.9884
▁nonexistent	-11.9884
▁darling	-11.9884
▁hateful	-11.9885
▁mystical	-11.9887
▁flowing	-11.9888
45	-11.9889
▁lange	-11.989
▁fin	-11.9891
▁gina	-11.9893
▁nuanced	-11.9894
haired	-11.9895
▁joker	-11.99
▁legion	-11.9902
▁preaching	-11.9904
▁apologize	-11.9906
▁ricky	-11.9907
isha	-11.9909
pick	-11.9909
▁parking	-11.9909
gold	-11.9911
▁vil	-11.9911
▁mixes	-11.9912
▁summe	-11.9921
▁swinging	-11.9923
▁attending	-11.9924
▁followers	-11.9924
▁stoic	-11.9931
▁expertly	-11.9933
▁forgetting	-11.9933
▁hyped	-11.9937
own	-11.9937
fast	-11.9939
▁threads	-11.994
pack	-11.9942
▁pow	-11.9944
▁proclaim	-11.9947
▁disturb	-11.9952
▁maze	-11.9962
▁brew	-11.9964
▁coal	-11.9966
▁patriot	-11.9974
▁satanic	-11.9978
▁hunted	-11.9978
▁raider	-11.9979
▁gee	-11.9981
should	-11.9981
standard	-11.9982
▁congress	-11.9986
▁howling	-11.9988
▁detect	-11.9991
▁1933	-11.9992
▁analyze	-11.9992
▁bunuel	-11.9992
▁centuries	-11.9992
▁facility	-11.9992
▁ghastly	-11.9992
▁inaccuracies	-11.9992
▁inclined	-11.9992
▁unanswered	-11.9992
▁volunteer	-11.9992
▁bliss	-11.9992
▁incestuous	-11.9992
▁nutshell	-11.9992
▁enduring	-11.9992
▁sundance	-11.9992
▁disappearance	-11.9992
▁hurry	-11.9992
▁scarier	-11.9993
▁roach	-11.9994
▁midget	-11.9994
▁norma	-11.9998
▁enchanting	-11.9998
▁overweight	-11.9998
▁warhol	-11.9998
▁progression	-11.9999
▁unclear	-11.9999
▁cent	-12
▁arden	-12
▁desk	-12.0002
▁passive	-12.0002
lio	-12.0005
aro	-12.0005
oops	-12.0006
▁dern	-12.0012
bridge	-12.0013
▁inserted	-12.0016
▁stoned	-12.002
▁explodes	-12.0025
▁wholesome	-12.0026
save	-12.0026
▁suburb	-12.0028
▁thereby	-12.0033
▁ple	-12.0034
▁climbing	-12.0038
▁cav	-12.0038
25	-12.0039
▁shemp	-12.0047
▁aided	-12.0049
▁squeeze	-12.0052
▁hinted	-12.0059
▁nuances	-12.0059
blow	-12.0068
▁attic	-12.0068
▁gram	-12.0072
mouth	-12.0076
▁scam	-12.0081
▁masked	-12.0082
▁smarter	-12.0084
▁glow	-12.0089
▁guil	-12.0091
birth	-12.0094
storm	-12.0094
▁dale	-12.0097
!")	-12.0099
▁insomnia	-12.01
▁gerald	-12.0103
▁falcon	-12.0104
▁liberties	-12.0104
▁mclaglen	-12.0104
▁oblivious	-12.0104
▁othello	-12.0104
▁remorse	-12.0104
▁slept	-12.0104
▁thirties	-12.0104
▁lestat	-12.0104
▁dodgy	-12.0104
▁woven	-12.0104
▁grisly	-12.0104
▁courtroom	-12.0105
▁rousing	-12.0105
▁youngsters	-12.0105
▁thi	-12.0106
▁paranormal	-12.0107
▁establishment	-12.0108
▁customers	-12.0109
color	-12.011
▁hound	-12.011
▁forgiveness	-12.0112
▁bondage	-12.0112
▁switches	-12.0113
▁stating	-12.0113
▁liu	-12.0116
▁readily	-12.0118
▁perceived	-12.0118
▁narrated	-12.0118
bomb	-12.0119
▁deliciously	-12.012
sea	-12.0128
▁chic	-12.0128
▁stall	-12.0135
mc	-12.014
▁contestants	-12.014
▁bashing	-12.0141
▁camping	-12.0141
▁excellently	-12.0142
▁cliched	-12.0143
▁stereotyped	-12.0147
▁1000	-12.0151
▁slack	-12.0166
these	-12.0171
mail	-12.0172
owski	-12.0186
▁pep	-12.0192
▁avenge	-12.0201
realistic	-12.0206
average	-12.0207
▁extract	-12.0207
dirty	-12.0207
political	-12.0207
batman	-12.0208
▁nit	-12.0214
telling	-12.0216
▁1991	-12.0218
▁confined	-12.0218
▁devotion	-12.0218
▁fassbinder	-12.0218
▁furniture	-12.0218
▁liberty	-12.0218
▁phoebe	-12.0218
▁satellite	-12.0218
▁tierney	-12.0218
▁correspond	-12.0218
▁hercules	-12.0218
▁reception	-12.0218
▁snail	-12.0218
▁sincerity	-12.0218
▁occult	-12.0218
▁prostitution	-12.0218
▁hannah	-12.0218
▁juice	-12.0219
▁miami	-12.0219
▁advertisement	-12.0219
▁rogue	-12.0219
▁brett	-12.022
▁feud	-12.022
▁sidewalk	-12.022
▁rudy	-12.022
▁courageous	-12.022
▁wtf	-12.0221
▁rouge	-12.0221
▁battlefield	-12.0222
▁restore	-12.0222
▁accomplishment	-12.0223
▁brendan	-12.0223
▁lighthearted	-12.0223
▁dandy	-12.0224
linda	-12.0224
▁brent	-12.0226
▁nina	-12.0227
friends	-12.0228
▁lung	-12.0229
whose	-12.0229
▁elected	-12.0232
▁awareness	-12.0232
▁fetched	-12.0233
▁vent	-12.0236
cular	-12.0248
▁lick	-12.025
▁mug	-12.0253
▁sigh	-12.0254
▁dug	-12.0256
▁$10	-12.0261
▁progressed	-12.0261
▁boobs	-12.0266
main	-12.0271
phil	-12.0272
earn	-12.0279
▁monte	-12.0283
▁decor	-12.0285
▁filmography	-12.0289
▁cheering	-12.0291
▁dys	-12.0292
▁drown	-12.0294
▁terri	-12.0297
▁crooks	-12.0303
osh	-12.0314
▁eliminate	-12.0314
▁reunite	-12.0314
▁greene	-12.0317
▁invite	-12.0318
▁jen	-12.032
hip	-12.0321
▁dustin	-12.0321
respect	-12.0322
▁steele	-12.0322
beautiful	-12.0322
touch	-12.033
▁fishburne	-12.0332
▁micheal	-12.0332
▁obscurity	-12.0332
▁patterson	-12.0332
▁perpetual	-12.0332
▁pivotal	-12.0332
▁portuguese	-12.0332
▁redgrave	-12.0332
▁squirm	-12.0332
▁strung	-12.0332
▁guinness	-12.0332
▁looney	-12.0332
▁sassy	-12.0333
▁macdonald	-12.0333
▁lorre	-12.0333
▁klein	-12.0333
▁henson	-12.0333
▁stephanie	-12.0333
▁stepmother	-12.0333
▁feather	-12.0334
voiced	-12.0334
▁attain	-12.0334
▁governor	-12.0334
▁brazilian	-12.0334
▁strive	-12.0334
▁sample	-12.0335
▁staging	-12.0335
▁burke	-12.0336
▁popped	-12.0336
▁glee	-12.0336
▁biko	-12.0338
person	-12.0338
▁chocolate	-12.0339
▁clad	-12.0339
▁prim	-12.0341
▁wayans	-12.0341
▁anticipated	-12.0343
▁hopeful	-12.0345
▁magician	-12.0348
▁godard	-12.0349
▁wage	-12.0349
▁relentlessly	-12.0349
▁heather	-12.0349
▁hackman	-12.035
▁reluctantly	-12.0353
▁stalked	-12.0355
talking	-12.0355
hab	-12.0358
▁criticized	-12.0361
▁ariel	-12.0372
wig	-12.0372
stay	-12.0373
▁stupidest	-12.0374
▁pegg	-12.0377
shine	-12.0382
▁frontal	-12.0387
▁shocker	-12.0401
▁bless	-12.0404
▁jude	-12.0404
▁kite	-12.0416
wai	-12.0419
▁peers	-12.042
▁begun	-12.0435
▁alleged	-12.0436
▁indulge	-12.0438
daughter	-12.0438
▁fleshed	-12.0438
inducing	-12.0439
deserved	-12.0439
could	-12.0439
crime	-12.0439
snake	-12.044
jar	-12.0445
▁humiliate	-12.0449
▁naschy	-12.0449
▁nielsen	-12.0449
▁poirot	-12.0449
▁sabrina	-12.0449
▁acquaintance	-12.0449
▁berkeley	-12.0449
▁buffoon	-12.0449
▁cavalry	-12.0449
▁clarity	-12.0449
▁govinda	-12.0449
▁hypnotic	-12.0449
▁inconsistencies	-12.0449
▁nifty	-12.0449
▁norwegian	-12.0449
▁sociopath	-12.0449
▁anthology	-12.0449
▁abroad	-12.0449
▁hungarian	-12.0449
▁reprise	-12.0449
▁obscene	-12.0449
▁alliance	-12.0449
▁mcqueen	-12.0449
▁resonate	-12.0449
▁pokemon	-12.045
▁dizzy	-12.045
▁zoey	-12.045
▁finney	-12.045
▁bodyguard	-12.045
▁hijack	-12.045
▁subconscious	-12.045
sleep	-12.0452
▁shady	-12.0452
▁brink	-12.0452
▁ramones	-12.0453
▁digest	-12.0454
▁runaway	-12.0455
bou	-12.0456
▁denis	-12.0458
▁distributed	-12.0459
▁versa	-12.0461
▁vega	-12.0462
▁posey	-12.0466
▁oak	-12.0467
▁brass	-12.0472
▁raines	-12.0475
eta	-12.0475
▁exam	-12.0481
bbed	-12.0481
▁crosses	-12.0483
▁ec	-12.0485
▁unfolding	-12.0501
▁sgt	-12.0504
dell	-12.0513
▁listing	-12.0518
▁condo	-12.0538
release	-12.0538
had	-12.0541
▁alba	-12.0544
▁alienate	-12.0547
▁forties	-12.0552
▁environmental	-12.0555
shadow	-12.0557
▁openly	-12.0559
▁shave	-12.0559
▁cheerleader	-12.0566
▁corbett	-12.0566
▁dungeon	-12.0566
▁moriarty	-12.0566
▁nightmarish	-12.0566
▁penalty	-12.0566
▁playwright	-12.0566
▁revolving	-12.0566
▁zellweger	-12.0566
▁marvellous	-12.0566
▁import	-12.0567
▁sandwich	-12.0567
▁shannon	-12.0567
▁laboratory	-12.0567
▁therapy	-12.0567
▁basil	-12.0567
▁1977	-12.0567
▁gossip	-12.0568
▁sweetheart	-12.0568
▁transferred	-12.0568
▁troopers	-12.0568
▁fellini	-12.0569
▁vader	-12.0569
▁remainder	-12.0569
▁teddy	-12.057
▁admitted	-12.057
▁pickford	-12.057
throp	-12.057
▁skeptical	-12.0573
▁posse	-12.0574
bach	-12.0574
▁debra	-12.0574
▁grain	-12.0576
▁sammy	-12.0577
▁kai	-12.0579
▁mindset	-12.0582
▁knot	-12.0585
▁accompanying	-12.0585
▁needle	-12.0585
▁tack	-12.0586
ryan	-12.0593
▁sleeper	-12.0593
▁invested	-12.0594
won	-12.0594
▁relaxed	-12.0598
▁lapse	-12.0601
▁transported	-12.0602
keeper	-12.0603
▁upbeat	-12.0605
round	-12.0611
▁gamera	-12.0614
▁rug	-12.0616
▁yuk	-12.0622
sided	-12.0624
celeb	-12.0632
▁counting	-12.0635
prop	-12.0636
▁tuned	-12.0638
▁cursed	-12.0642
angelo	-12.0643
▁chang	-12.0671
find	-12.0671
▁outset	-12.0672
documentary	-12.0675
frame	-12.0676
those	-12.068
▁1957	-12.0685
▁anonymous	-12.0685
▁celebrities	-12.0685
▁cohesive	-12.0685
▁component	-12.0685
▁comrade	-12.0685
▁coyote	-12.0685
▁dedication	-12.0685
▁economy	-12.0685
▁flamboyant	-12.0685
▁identified	-12.0685
▁pixar	-12.0685
▁predicament	-12.0685
▁rathbone	-12.0685
▁stadium	-12.0685
▁succumb	-12.0685
▁atlantic	-12.0685
▁huppert	-12.0685
▁ebay	-12.0685
▁relating	-12.0685
▁shriek	-12.0685
▁outlandish	-12.0685
▁smirk	-12.0685
▁foreshadow	-12.0685
▁programming	-12.0686
▁kingsley	-12.0686
▁banana	-12.0686
▁flew	-12.0686
▁carrot	-12.0686
▁robbed	-12.0687
▁rewrite	-12.0688
▁yank	-12.0688
▁delay	-12.0691
▁bearable	-12.0695
▁spotted	-12.0695
▁ample	-12.0698
▁cody	-12.0705
rex	-12.0712
▁tint	-12.0715
scale	-12.0715
amato	-12.0715
▁woke	-12.0723
▁peep	-12.0724
▁85	-12.0729
▁officially	-12.0731
▁propel	-12.0737
kim	-12.0738
▁scratching	-12.0738
▁pranks	-12.0743
lady	-12.0746
▁	-12.0748
▁sexist	-12.0749
▁magically	-12.0751
jokes	-12.0752
▁solved	-12.0755
▁curiously	-12.0762
▁75	-12.0767
meter	-12.0769
▁cass	-12.0773
▁boyer	-12.0793
zel	-12.0797
▁targeted	-12.0799
ipping	-12.0801
▁snob	-12.0806
▁applause	-12.0806
▁audrey	-12.0806
▁brynner	-12.0806
▁chupacabra	-12.0806
▁deception	-12.0806
▁discipline	-12.0806
▁endeavor	-12.0806
▁neutral	-12.0806
▁preparation	-12.0806
▁pursuing	-12.0806
▁rebecca	-12.0806
▁sensitivity	-12.0806
▁superfluous	-12.0806
▁zizek	-12.0806
▁district	-12.0806
▁demille	-12.0806
▁floyd	-12.0806
▁combs	-12.0806
▁stabbing	-12.0806
▁clutter	-12.0806
▁telegraph	-12.0806
▁gym	-12.0806
▁venom	-12.0806
▁myrna	-12.0806
▁cynicism	-12.0807
▁renaissance	-12.0807
▁trance	-12.0807
▁gillian	-12.0807
▁discount	-12.0807
▁awakening	-12.0807
▁mentor	-12.0808
▁digging	-12.0808
▁choir	-12.0808
▁drawback	-12.0808
▁arrangement	-12.0809
▁genetic	-12.0809
▁franc	-12.081
▁electricity	-12.081
▁zeta	-12.081
▁bid	-12.081
▁diary	-12.0812
▁glenda	-12.0812
▁deadpan	-12.0813
▁tread	-12.0813
▁slower	-12.0814
▁improvised	-12.0816
▁occupied	-12.0816
▁tailor	-12.0816
rack	-12.0817
▁skater	-12.0817
▁staggering	-12.0817
▁derived	-12.0818
▁fleeting	-12.0829
▁fairness	-12.0837
▁puzzled	-12.0848
▁proportions	-12.0851
▁paula	-12.0851
▁emil	-12.086
▁tee	-12.0863
prison	-12.0864
▁dye	-12.0869
▁tub	-12.0875
▁tilly	-12.0882
▁peek	-12.0882
▁prayer	-12.0895
mini	-12.0896
kids	-12.0908
▁unleash	-12.091
22	-12.091
▁cancel	-12.0912
chick	-12.0913
▁obstacles	-12.0913
▁gosh	-12.0916
▁novelist	-12.0917
wreck	-12.0918
camera	-12.0918
▁insulted	-12.0922
ó	-12.0928
▁beethoven	-12.0928
▁chamberlain	-12.0928
▁chronological	-12.0928
▁custody	-12.0928
▁earthquake	-12.0928
▁henchman	-12.0928
▁inadvertently	-12.0928
▁keanu	-12.0928
▁occupation	-12.0928
▁recurring	-12.0928
▁stubborn	-12.0928
▁suicidal	-12.0928
▁vapid	-12.0928
ordinate	-12.0928
▁antwone	-12.0928
▁zealand	-12.0928
▁effortlessly	-12.0928
▁reinforce	-12.0928
▁marilyn	-12.0928
▁1975	-12.0928
▁applies	-12.0928
▁witchcraft	-12.0928
▁denied	-12.0929
▁annoyance	-12.0929
▁helmet	-12.0929
▁cassie	-12.093
▁faux	-12.093
▁republican	-12.093
▁traitor	-12.0932
▁retreat	-12.0932
▁viking	-12.0932
▁skirt	-12.0932
▁fable	-12.0935
▁puff	-12.0936
▁waist	-12.0938
▁mythical	-12.0939
yr	-12.0941
▁hardened	-12.0942
etti	-12.0942
▁continent	-12.0943
▁arranged	-12.0943
▁understandably	-12.0946
vyn	-12.0946
▁moran	-12.0948
▁similarity	-12.0954
▁weekly	-12.0959
▁cain	-12.0959
▁reported	-12.097
▁coaster	-12.0985
▁loner	-12.0989
▁ratio	-12.0996
▁slop	-12.0996
▁employer	-12.1001
▁rigg	-12.1002
hire	-12.1003
player	-12.1009
▁27	-12.101
uction	-12.1012
horn	-12.1015
sort	-12.1026
▁hag	-12.1029
▁harr	-12.1031
▁coen	-12.1031
▁brow	-12.1036
related	-12.1038
▁increasing	-12.1038
halloween	-12.1041
albeit	-12.1041
through	-12.1044
▁retrospect	-12.105
▁romania	-12.1051
▁basket	-12.1051
▁1934	-12.1051
▁capote	-12.1051
▁combining	-12.1051
▁edmund	-12.1051
▁einstein	-12.1051
▁espionage	-12.1051
▁mccarthy	-12.1051
▁meredith	-12.1051
▁schwarzenegger	-12.1051
▁thurman	-12.1051
▁violin	-12.1051
▁carriage	-12.1051
▁conceit	-12.1051
▁esther	-12.1051
▁atrocity	-12.1051
24	-12.1051
▁shearer	-12.1052
▁reruns	-12.1052
▁snappy	-12.1052
▁boundaries	-12.1052
▁gallery	-12.1052
▁exploitative	-12.1052
▁cigar	-12.1052
▁0/10	-12.1052
▁assistance	-12.1052
▁flipping	-12.1053
▁attendant	-12.1053
▁stripped	-12.1053
▁techno	-12.1053
▁dudley	-12.1053
▁zany	-12.1053
▁investment	-12.1054
▁dragging	-12.1054
▁patent	-12.1056
▁sheila	-12.1056
▁rosemary	-12.1057
▁toxic	-12.106
packed	-12.1062
▁peggy	-12.1063
▁cuban	-12.1064
▁controlling	-12.1067
▁bitchy	-12.1071
▁announced	-12.1073
aime	-12.1079
▁vel	-12.1087
ault	-12.1089
yama	-12.1091
▁commando	-12.1096
▁listened	-12.1098
stock	-12.11
moon	-12.1103
▁crushed	-12.1107
▁significantly	-12.1107
▁adv	-12.1115
splitting	-12.1127
▁gel	-12.113
▁demi	-12.1131
▁shaped	-12.1144
▁flashing	-12.1144
▁laying	-12.1148
bli	-12.115
▁rene	-12.1153
▁marketed	-12.1153
wee	-12.1154
▁greet	-12.1156
▁complicat	-12.1158
▁knocking	-12.1161
▁95	-12.1164
spoken	-12.1166
sometimes	-12.1166
women	-12.1167
doctor	-12.1168
holland	-12.1168
▁strangle	-12.1169
▁fleet	-12.1169
▁wilde	-12.1171
▁bombed	-12.1172
▁abundance	-12.1176
▁alexandra	-12.1176
▁arrogance	-12.1176
▁impeccable	-12.1176
▁interlude	-12.1176
▁intertwine	-12.1176
▁jacques	-12.1176
▁loretta	-12.1176
▁miniature	-12.1176
▁radiation	-12.1176
▁roosevelt	-12.1176
▁synchron	-12.1176
▁unappealing	-12.1176
▁quintessential	-12.1176
▁potato	-12.1176
▁puerto	-12.1176
▁avenue	-12.1176
▁courtesy	-12.1176
▁reckon	-12.1176
▁federal	-12.1176
▁escort	-12.1176
▁wrist	-12.1176
▁suave	-12.1176
▁overtones	-12.1176
▁mcdonald	-12.1177
▁shepard	-12.1177
▁marathon	-12.1177
▁earliest	-12.1177
help	-12.1177
▁division	-12.1177
▁collar	-12.1178
▁ostensibly	-12.1178
▁labour	-12.1178
▁october	-12.1178
▁idealistic	-12.1178
▁sarcasm	-12.1178
▁500	-12.1178
▁devour	-12.1178
▁waking	-12.1179
▁impose	-12.1179
▁engagement	-12.1179
▁hallway	-12.1181
▁shack	-12.1182
▁villagers	-12.1183
speaking	-12.1183
▁infinitely	-12.1184
▁honey	-12.1184
▁stance	-12.1188
▁zoo	-12.1189
▁flush	-12.119
▁irritated	-12.1192
▁yearning	-12.1195
▁elmer	-12.1196
▁terrorize	-12.1197
▁passenger	-12.12
▁hr	-12.1205
▁tide	-12.1206
kick	-12.1209
▁strained	-12.1209
▁cine	-12.121
▁polly	-12.121
▁sickness	-12.1212
lab	-12.1212
▁smoothly	-12.1212
▁gathered	-12.1214
▁gaze	-12.1216
▁uma	-12.1217
▁ranting	-12.1219
hoe	-12.1222
▁projection	-12.1223
▁linear	-12.1224
quite	-12.1234
▁prank	-12.1242
▁sak	-12.125
▁bout	-12.125
greg	-12.125
iver	-12.1253
direct	-12.1268
▁monumental	-12.1272
▁sleepy	-12.1275
▁spat	-12.1277
▁awfulness	-12.1283
▁accuse	-12.1285
?????	-12.1285
▁sucking	-12.1285
heaven	-12.1293
appreciated	-12.1293
attack	-12.1293
would	-12.1293
▁octopus	-12.1293
social	-12.1294
control	-12.1295
jerk	-12.1297
▁foe	-12.1298
semblance	-12.1299
▁aristocrat	-12.1301
▁plea	-12.1301
▁incidental	-12.1303
▁1985	-12.1303
▁circuit	-12.1303
▁decency	-12.1303
▁deneuve	-12.1303
▁detached	-12.1303
▁gershwin	-12.1303
▁gielgud	-12.1303
▁graffiti	-12.1303
▁groove	-12.1303
▁hockey	-12.1303
▁schizophrenic	-12.1303
▁sponsor	-12.1303
▁transvestite	-12.1303
▁recreation	-12.1303
▁wreak	-12.1303
▁sentinel	-12.1303
▁merry	-12.1303
▁pornographic	-12.1303
▁closure	-12.1303
▁crane	-12.1304
▁chalk	-12.1304
▁undertone	-12.1304
▁traumatic	-12.1304
▁digress	-12.1304
▁swanson	-12.1304
▁crass	-12.1305
▁stomp	-12.1305
▁uneasy	-12.1306
▁nanny	-12.1306
▁loren	-12.1306
▁punchline	-12.1307
▁truman	-12.1308
▁hunk	-12.1309
▁charity	-12.1309
▁consumed	-12.1312
▁slit	-12.132
▁accidental	-12.1322
▁largest	-12.1325
▁perverted	-12.1326
▁agreement	-12.1326
▁evolved	-12.1329
▁distinctly	-12.1331
▁nerdy	-12.1333
▁dusty	-12.1333
▁casually	-12.1337
▁puke	-12.1338
▁pope	-12.1339
▁bosses	-12.1347
braveheart	-12.1348
▁desi	-12.1349
seen	-12.1349
heroes	-12.1363
▁elliot	-12.1364
▁raf	-12.1367
▁arty	-12.1367
▁seriousness	-12.1367
▁lament	-12.1373
▁shah	-12.1376
▁commanding	-12.138
change	-12.1388
ulating	-12.1401
▁winston	-12.1402
wolf	-12.1406
▁weary	-12.1411
▁crashed	-12.1411
possible	-12.1421
literally	-12.1421
centered	-12.1421
wrote	-12.1421
charles	-12.1422
▁marsh	-12.1426
▁seth	-12.1428
buster	-12.1429
cake	-12.1431
▁disrupt	-12.1431
▁masochist	-12.1431
▁adventurous	-12.1431
▁ceremony	-12.1431
▁fugitive	-12.1431
▁homicidal	-12.1431
▁selleck	-12.1431
▁throne	-12.1431
▁vessel	-12.1431
▁dialect	-12.1431
▁saloon	-12.1431
▁diversity	-12.1431
▁bachchan	-12.1431
▁irwin	-12.1431
▁uptight	-12.1431
▁awry	-12.1432
▁implies	-12.1432
▁compassionate	-12.1432
▁cloak	-12.1432
▁byrne	-12.1432
▁aerial	-12.1433
▁philadelphia	-12.1433
▁chock	-12.1433
▁robocop	-12.1434
▁joking	-12.1435
▁elementary	-12.1437
▁terrorism	-12.1438
*1/2	-12.1438
▁consumer	-12.1439
▁spoiling	-12.1439
▁crowded	-12.144
▁scum	-12.144
pool	-12.1441
▁suggestive	-12.1441
▁veer	-12.1441
▁bake	-12.1444
▁faye	-12.1444
▁robotic	-12.1449
▁tacked	-12.1451
▁penis	-12.1453
▁sway	-12.1453
▁manipulated	-12.1454
▁distinguished	-12.1455
steve	-12.1459
▁confirmed	-12.1462
▁tess	-12.1463
▁genie	-12.1463
kate	-12.1474
▁labeled	-12.1478
▁steaming	-12.1481
▁promo	-12.1492
▁madman	-12.1495
▁colored	-12.1506
member	-12.1514
▁mastermind	-12.1521
▁forrest	-12.1527
▁dien	-12.1539
fair	-12.1543
▁reduce	-12.1543
▁paz	-12.1558
▁academic	-12.1561
▁athlete	-12.1561
▁deceptive	-12.1561
▁estevez	-12.1561
▁imperial	-12.1561
▁impersonation	-12.1561
▁irrational	-12.1561
▁jagger	-12.1561
▁katherine	-12.1561
▁lubitsch	-12.1561
▁necessity	-12.1561
▁rebellion	-12.1561
▁scheming	-12.1561
▁unnecessarily	-12.1561
▁wrestlemania	-12.1561
▁masquerad	-12.1561
▁shrew	-12.1561
▁randall	-12.1561
▁ramsey	-12.1561
▁007	-12.1561
▁perkins	-12.1561
▁handicapped	-12.1561
▁evelyn	-12.1561
▁retirement	-12.1562
▁allusion	-12.1562
▁chevy	-12.1562
▁dispose	-12.1562
▁stirring	-12.1563
▁cheung	-12.1563
▁padding	-12.1563
▁scarred	-12.1563
▁uncertain	-12.1563
▁slavery	-12.1563
▁tennis	-12.1563
animator	-12.1564
▁retelling	-12.1565
meet	-12.1565
▁haircut	-12.1565
▁leak	-12.1567
▁scattered	-12.1568
▁grating	-12.1569
▁rosa	-12.1569
▁amuse	-12.157
▁inducing	-12.1572
▁haha	-12.1574
▁renee	-12.1576
▁crook	-12.1577
▁nash	-12.1577
▁gown	-12.1578
▁domain	-12.1578
▁mice	-12.1579
cce	-12.158
▁nichol	-12.1588
▁buffy	-12.1594
▁cutter	-12.1595
▁reeve	-12.1596
easing	-12.1596
psy	-12.1596
▁testing	-12.1598
poo	-12.1602
95	-12.1602
▁harmon	-12.1603
▁weirdo	-12.1604
▁drone	-12.1605
▁nasa	-12.1607
▁martino	-12.161
▁spinal	-12.1613
▁switching	-12.1616
▁advised	-12.1616
▁brag	-12.1625
racy	-12.1637
▁fixed	-12.1639
enberg	-12.1642
▁insanely	-12.1648
▁lighten	-12.1652
aux	-12.1665
▁zap	-12.1678
wrenching	-12.1682
conceived	-12.1682
worst	-12.1682
until	-12.1685
natured	-12.1686
model	-12.1687
candy	-12.1688
▁admirably	-12.1693
▁capsule	-12.1693
▁chipmunk	-12.1693
▁confederate	-12.1693
▁dafoe	-12.1693
▁demeanor	-12.1693
▁identities	-12.1693
▁interspersed	-12.1693
▁reservation	-12.1693
▁spectrum	-12.1693
▁yourselves	-12.1693
▁daisy	-12.1693
▁lurid	-12.1693
▁overshadowed	-12.1693
▁shelves	-12.1693
▁conjure	-12.1693
▁diploma	-12.1693
▁unstable	-12.1693
▁plunge	-12.1693
▁rhys	-12.1693
▁beetle	-12.1693
▁mustache	-12.1694
▁placing	-12.1694
▁conroy	-12.1694
▁cyber	-12.1695
▁jodie	-12.1695
▁caroline	-12.1696
▁drugged	-12.1696
▁edith	-12.1697
▁destructive	-12.1697
▁surrealism	-12.1699
▁mm	-12.17
27	-12.17
exist	-12.1701
▁miraculously	-12.1702
▁subtitled	-12.1703
▁contradiction	-12.1704
▁rickman	-12.1704
▁glossy	-12.1705
▁deanna	-12.1706
▁hometown	-12.1706
▁narc	-12.1706
▁fanny	-12.1706
▁allegedly	-12.1708
▁omar	-12.1708
▁stem	-12.1708
▁careless	-12.1708
▁policemen	-12.1711
▁philo	-12.1713
▁absorbed	-12.1714
▁condemned	-12.1717
▁wonderland	-12.1717
▁borg	-12.1719
▁funky	-12.172
▁masterson	-12.172
▁wool	-12.1723
iron	-12.1727
▁wiped	-12.1729
▁lava	-12.1735
▁assassinate	-12.1736
chen	-12.174
▁hugo	-12.1741
▁overnight	-12.1742
▁mich	-12.1756
▁nickname	-12.1765
apart	-12.1765
pie	-12.1776
match	-12.178
luck	-12.1782
alice	-12.1784
▁lovingly	-12.1788
mary	-12.1789
adam	-12.1794
▁delusion	-12.1812
▁ming	-12.1814
midnight	-12.1816
fresh	-12.1817
depend	-12.1818
naked	-12.1819
kevin	-12.182
living	-12.182
their	-12.1824
▁submit	-12.1825
▁1955	-12.1826
▁autobiography	-12.1826
▁bicycle	-12.1826
▁butterfly	-12.1826
▁constitute	-12.1826
▁exaggeration	-12.1826
▁flourish	-12.1826
▁gilliam	-12.1826
▁houston	-12.1826
▁kazan	-12.1826
▁monstrous	-12.1826
▁olympic	-12.1826
▁psychiatric	-12.1826
▁puzzling	-12.1826
▁sydow	-12.1826
▁veronika	-12.1826
▁vincenzo	-12.1826
▁wynorski	-12.1826
▁fathom	-12.1826
▁sheridan	-12.1826
▁permit	-12.1826
▁lindsay	-12.1826
▁rumble	-12.1826
▁cunningham	-12.1826
▁backwoods	-12.1827
▁denver	-12.1827
▁tissue	-12.1827
▁commendable	-12.1828
▁misfire	-12.1828
▁chopper	-12.1828
▁skipping	-12.183
▁rko	-12.1831
▁oddball	-12.1833
▁midler	-12.1833
▁stoner	-12.1834
▁motivated	-12.1835
▁oriented	-12.1836
▁supportive	-12.1837
▁data	-12.1839
▁cough	-12.1839
▁spawned	-12.184
▁conflicted	-12.184
▁kan	-12.1841
bury	-12.1843
▁beforehand	-12.1844
liness	-12.1846
▁avenger	-12.1846
▁whim	-12.1846
▁drowned	-12.1847
▁kei	-12.1848
▁kisses	-12.1849
▁dope	-12.1852
▁milland	-12.1852
▁lingering	-12.186
▁arouse	-12.1862
▁gripe	-12.1866
▁gesture	-12.1867
cold	-12.1868
▁graceful	-12.1875
▁amber	-12.1877
▁brig	-12.189
▁justification	-12.189
neck	-12.1892
▁layer	-12.1892
▁scarlet	-12.1896
stand	-12.1908
▁highland	-12.1919
▁hark	-12.1928
▁fend	-12.1936
▁accompany	-12.194
▁oppos	-12.1943
▁26	-12.1945
▁marrying	-12.1945
▁permanent	-12.1948
▁continuous	-12.1948
jennifer	-12.1951
apparently	-12.1951
intelligent	-12.1951
daniel	-12.1952
▁sr	-12.1956
maniac	-12.1959
▁benjamin	-12.1961
▁brunette	-12.1961
▁concentration	-12.1961
▁elijah	-12.1961
▁fairbanks	-12.1961
▁goldblum	-12.1961
▁infectious	-12.1961
▁innovation	-12.1961
▁minnelli	-12.1961
▁overwrought	-12.1961
▁poitier	-12.1961
▁scheider	-12.1961
▁sylvia	-12.1961
▁unnerving	-12.1961
▁winchester	-12.1961
▁gymnast	-12.1961
▁lumber	-12.1961
▁sauce	-12.1961
▁harriet	-12.1961
▁undertaker	-12.1961
ibility	-12.1961
▁rowlands	-12.1961
▁biological	-12.1961
▁lorenzo	-12.1961
▁rugged	-12.1961
▁babette	-12.1961
▁kinky	-12.1962
▁thespian	-12.1962
▁arnie	-12.1962
▁angelina	-12.1963
▁flare	-12.1963
▁aspire	-12.1963
▁featurette	-12.1965
▁borderline	-12.1965
▁hairstyle	-12.1965
▁recite	-12.1965
▁expressive	-12.1966
▁carpet	-12.1967
▁lodge	-12.1967
▁wrath	-12.1967
▁hustler	-12.1968
▁distorted	-12.1969
▁backyard	-12.197
released	-12.1972
▁berry	-12.1972
▁coleman	-12.1974
▁operating	-12.1974
▁blessing	-12.1986
▁blanc	-12.1989
▁induce	-12.1992
▁numbing	-12.1993
▁observed	-12.1994
▁swell	-12.1996
▁downward	-12.1996
▁inventor	-12.2
ako	-12.2006
eeee	-12.2006
▁outrageously	-12.201
▁predicted	-12.2011
▁geniuses	-12.2011
▁slaughtered	-12.2012
▁trier	-12.2014
fur	-12.2016
▁encouraged	-12.2019
▁plead	-12.2021
▁finn	-12.2029
▁hare	-12.2033
▁manga	-12.2041
standing	-12.2048
▁worrying	-12.2048
rip	-12.2048
gay	-12.205
▁conveying	-12.2056
▁pastor	-12.2057
▁menu	-12.2061
▁ufo	-12.2075
▁extrem	-12.2076
comic	-12.2077
▁acclaim	-12.208
▁revive	-12.2082
century	-12.2088
stupid	-12.2088
lewis	-12.2088
broken	-12.2088
▁spook	-12.2088
pretty	-12.2089
jeff	-12.2091
▁unremarkable	-12.2098
▁ambiance	-12.2098
▁blaxploitation	-12.2098
▁cambodia	-12.2098
▁chavez	-12.2098
▁communism	-12.2098
▁dahmer	-12.2098
▁duncan	-12.2098
▁elusive	-12.2098
▁exorcism	-12.2098
▁fiasco	-12.2098
▁imprisoned	-12.2098
▁incessant	-12.2098
▁kathryn	-12.2098
▁mcdowell	-12.2098
▁quibble	-12.2098
▁rehearsal	-12.2098
▁revival	-12.2098
▁sasquatch	-12.2098
▁wahlberg	-12.2098
▁wolves	-12.2098
▁competing	-12.2098
▁connecticut	-12.2098
▁sparse	-12.2098
▁whimsical	-12.2098
▁transparent	-12.2098
▁asterix	-12.2098
▁seattle	-12.2098
▁reiser	-12.2098
▁drool	-12.2098
▁goddess	-12.2098
▁laurie	-12.2098
▁perversion	-12.2099
victor	-12.2099
▁cancelled	-12.2099
▁keller	-12.21
▁interplay	-12.21
▁yarn	-12.21
▁seinfeld	-12.21
▁iranian	-12.2101
▁envy	-12.2101
▁serum	-12.2101
▁resurrection	-12.2101
▁mabel	-12.2101
▁patrol	-12.2102
▁ellis	-12.2102
▁arabia	-12.2103
▁boogie	-12.2103
▁groom	-12.2103
porn	-12.2103
▁katie	-12.2103
mask	-12.211
▁arkin	-12.2112
queen	-12.2112
berry	-12.2113
▁varying	-12.2114
▁sonny	-12.2115
▁congo	-12.2118
▁fantastically	-12.2118
▁prone	-12.2119
▁blessed	-12.212
▁hispanic	-12.2125
▁kh	-12.2125
▁searched	-12.2127
▁cassel	-12.2127
▁coolest	-12.2128
lash	-12.2131
▁adequately	-12.2135
▁violently	-12.2139
▁weigh	-12.214
▁vu	-12.2142
▁robe	-12.2143
▁counted	-12.2145
▁lars	-12.2153
▁drifter	-12.2153
keep	-12.2161
oooooo	-12.2162
▁kindness	-12.2162
▁plagued	-12.2165
▁hmm	-12.2165
▁dreamy	-12.2166
▁fallon	-12.2169
▁penned	-12.2171
▁morse	-12.2176
▁defending	-12.2183
▁pressed	-12.2185
rapture	-12.219
rink	-12.2193
▁talentless	-12.2194
▁ruled	-12.2198
▁mia	-12.22
▁structured	-12.2202
▁papa	-12.2206
▁narrate	-12.2219
▁devote	-12.2219
developed	-12.2221
illo	-12.2224
creature	-12.2227
husband	-12.2227
christian	-12.2227
wild	-12.2227
actresses	-12.2231
▁hale	-12.2233
decent	-12.2233
▁tasteful	-12.2236
▁automatic	-12.2236
▁intellect	-12.2237
▁anxiety	-12.2237
▁bartender	-12.2237
▁categories	-12.2237
▁cliffhanger	-12.2237
▁diabolical	-12.2237
▁disconnected	-12.2237
▁eleanor	-12.2237
▁foreboding	-12.2237
▁hilary	-12.2237
▁incompetence	-12.2237
▁kolchak	-12.2237
▁krueger	-12.2237
▁luxury	-12.2237
▁quantum	-12.2237
▁quigley	-12.2237
▁thirteen	-12.2237
▁venezuela	-12.2237
▁conceal	-12.2237
▁culprit	-12.2237
phobia	-12.2237
▁swiss	-12.2237
▁seuss	-12.2237
▁brawl	-12.2237
semitism	-12.2238
▁paired	-12.2238
▁purport	-12.2238
▁keyboard	-12.2239
▁bogus	-12.2239
▁darcy	-12.2239
▁judith	-12.2239
▁graduation	-12.224
▁naval	-12.224
▁imho	-12.2241
▁jedi	-12.2242
▁fido	-12.2245
hiro	-12.2245
▁pont	-12.2246
▁artistically	-12.2247
▁$7	-12.2247
▁clap	-12.225
▁correctness	-12.2254
▁letterman	-12.2255
▁hairy	-12.2256
▁skateboarding	-12.2257
▁drowning	-12.2263
▁trusted	-12.2272
▁holden	-12.2272
▁dual	-12.2275
▁enormously	-12.2276
01	-12.2281
▁silverman	-12.2284
▁chewing	-12.2285
▁logo	-12.2294
▁chiller	-12.2296
▁isabel	-12.2297
▁endured	-12.2303
▁output	-12.2306
!!!!!!!!!	-12.2309
▁boxes	-12.2316
nard	-12.2331
▁placement	-12.2343
▁dangerously	-12.2348
▁rou	-12.2348
36	-12.2351
▁atwill	-12.2354
media	-12.2355
▁swan	-12.2358
▁perceive	-12.236
▁thereafter	-12.2363
walker	-12.2363
claim	-12.2367
oriented	-12.2368
vampire	-12.2368
surprise	-12.2368
christopher	-12.2368
wagon	-12.2369
▁avail	-12.2376
▁toast	-12.2377
▁amnesia	-12.2378
▁arizona	-12.2378
▁baxter	-12.2378
▁circa	-12.2378
▁constraints	-12.2378
▁duchovny	-12.2378
▁grocer	-12.2378
▁gulliver	-12.2378
▁irresponsible	-12.2378
▁platoon	-12.2378
▁prevalent	-12.2378
▁sophistication	-12.2378
▁sylvester	-12.2378
▁upstairs	-12.2378
▁visceral	-12.2378
▁vulnerability	-12.2378
▁activist	-12.2378
▁galactica	-12.2378
▁rampant	-12.2378
▁agonizing	-12.2378
▁bloodshed	-12.2378
▁klaus	-12.2378
▁relish	-12.2378
▁animators	-12.2378
▁lennon	-12.2378
▁nominee	-12.2378
▁kitsch	-12.2378
▁vinnie	-12.2378
▁raimi	-12.2378
▁forehead	-12.2379
▁ernie	-12.2379
▁britney	-12.2379
▁singular	-12.2379
▁lonesome	-12.238
▁clayton	-12.238
▁spinning	-12.238
▁snowball	-12.238
▁marvin	-12.238
▁crab	-12.2381
▁chimp	-12.2381
▁campfire	-12.2381
▁voting	-12.2381
▁dario	-12.2381
▁horde	-12.2383
▁stargate	-12.2384
▁jab	-12.2384
▁rewind	-12.2384
▁underused	-12.2386
▁plantation	-12.2387
▁dopey	-12.2388
▁conductor	-12.2389
▁dv	-12.2391
▁bomber	-12.2391
▁conform	-12.2391
▁brooke	-12.2391
▁waltz	-12.2391
▁bind	-12.2392
brian	-12.2392
▁sammo	-12.2394
▁peer	-12.2394
▁wrenching	-12.2396
▁nell	-12.24
▁marcus	-12.2403
▁downtown	-12.2405
▁nuance	-12.2418
▁finishes	-12.2424
▁launched	-12.2424
▁lamp	-12.2431
▁stain	-12.2431
▁butchered	-12.2433
▁disappearing	-12.2433
▁soprano	-12.2435
buck	-12.2437
▁refuge	-12.2445
▁daft	-12.2447
river	-12.2449
▁rum	-12.2453
▁usage	-12.2463
▁tricked	-12.2469
▁grandpa	-12.2471
▁dreadfully	-12.2472
▁swat	-12.2481
47	-12.2487
▁arrange	-12.2499
▁elect	-12.2499
▁divide	-12.2503
bourne	-12.251
bodies	-12.2511
police	-12.2511
erotic	-12.2513
!!!!!!!	-12.252
à	-12.2521
▁1967	-12.2521
▁articulate	-12.2521
▁caligula	-12.2521
▁contemplate	-12.2521
▁desolate	-12.2521
▁external	-12.2521
▁greece	-12.2521
▁maturity	-12.2521
▁opposition	-12.2521
▁rodriguez	-12.2521
▁schumacher	-12.2521
▁signature	-12.2521
▁supermarket	-12.2521
▁tepid	-12.2521
▁unfinished	-12.2521
▁vengeful	-12.2521
▁disdain	-12.2521
▁jumble	-12.2521
▁botched	-12.2521
▁carlito	-12.2521
▁warfare	-12.2521
▁saddest	-12.2521
▁hodge	-12.2521
▁trump	-12.2521
▁judd	-12.2521
▁inexperienced	-12.2521
small	-12.2521
▁trench	-12.2521
▁censorship	-12.2521
▁predictability	-12.2521
▁cedric	-12.2521
▁ooze	-12.2521
interesting	-12.2522
▁tedium	-12.2522
▁lightweight	-12.2522
▁monday	-12.2522
▁irresistible	-12.2523
drum	-12.2523
▁levy	-12.2523
▁judi	-12.2523
▁radar	-12.2523
▁cannibalism	-12.2525
▁quaint	-12.2525
▁rapper	-12.2526
▁classified	-12.2527
huh	-12.2529
▁ditch	-12.2532
▁hunky	-12.2532
▁enchanted	-12.2532
▁misty	-12.2532
▁momma	-12.2532
▁shakespearean	-12.2539
unlike	-12.2539
▁unleashed	-12.2542
▁expresses	-12.2543
▁impale	-12.2545
grant	-12.2547
▁revolting	-12.2549
▁rig	-12.2553
▁overused	-12.2553
fighting	-12.2562
▁finch	-12.2562
▁loos	-12.2565
▁dismissed	-12.2566
▁smallest	-12.2567
▁praying	-12.2571
baked	-12.2574
▁jerky	-12.2574
▁sg	-12.2574
pra	-12.2575
▁representing	-12.2587
invent	-12.2588
▁intellectually	-12.2593
▁shiver	-12.2602
▁analog	-12.2609
▁outlook	-12.261
▁mow	-12.2613
▁locker	-12.2616
▁crud	-12.2617
▁troop	-12.2629
▁zombi	-12.2643
▁dogma	-12.2652
usually	-12.2652
marie	-12.2655
english	-12.2655
unfortunately	-12.2655
edited	-12.2658
trash	-12.266
▁mach	-12.2662
▁crowe	-12.2663
extraordinarily	-12.2666
▁1992	-12.2666
▁delirious	-12.2666
▁durbin	-12.2666
▁enthralling	-12.2666
▁episodic	-12.2666
▁fitzgerald	-12.2666
▁guinea	-12.2666
▁insignificant	-12.2666
▁kathleen	-12.2666
▁torturing	-12.2666
▁versatile	-12.2666
▁rabid	-12.2666
▁skating	-12.2666
▁screech	-12.2666
▁caretaker	-12.2666
▁dassin	-12.2666
▁hutton	-12.2666
▁discern	-12.2666
▁theodore	-12.2666
▁architecture	-12.2666
▁granny	-12.2667
▁olsen	-12.2667
▁harlow	-12.2667
▁interrogation	-12.2667
▁devious	-12.2667
▁apollo	-12.2668
▁gruff	-12.2669
▁skipped	-12.2669
▁chiba	-12.267
▁ledger	-12.2672
▁cement	-12.2673
▁carroll	-12.2673
▁baffled	-12.2674
▁harmony	-12.2676
▁overwhelmed	-12.2678
▁shamelessly	-12.2685
▁deepest	-12.2686
easy	-12.2691
▁starlet	-12.2695
▁eff	-12.2696
▁bleeding	-12.2697
bang	-12.272
▁fee	-12.272
▁nailed	-12.2721
▁artful	-12.2723
▁sentenced	-12.2727
▁trait	-12.274
▁sacrificed	-12.2741
alter	-12.2742
5%	-12.2743
▁belonging	-12.2744
▁harlin	-12.2745
!!!!!!	-12.2748
lack	-12.2751
▁psychologically	-12.2762
hate	-12.2764
▁burr	-12.2773
hunt	-12.278
▁skateboard	-12.2791
▁protecting	-12.2793
▁irritate	-12.2795
street	-12.2802
coaster	-12.2802
sensitive	-12.2802
straight	-12.2802
running	-12.2805
short	-12.2805
88	-12.2806
warning	-12.2806
guard	-12.2807
▁1944	-12.2813
▁anniversary	-12.2813
▁climate	-12.2813
▁colonial	-12.2813
▁concrete	-12.2813
▁confines	-12.2813
▁eccleston	-12.2813
▁epitome	-12.2813
▁evocative	-12.2813
▁humiliation	-12.2813
▁hypocrisy	-12.2813
▁incarnation	-12.2813
▁january	-12.2813
▁misplaced	-12.2813
▁nathaniel	-12.2813
▁ounce	-12.2813
▁palestinian	-12.2813
▁patriarch	-12.2813
▁raunchy	-12.2813
▁replacing	-12.2813
▁schrader	-12.2813
▁slang	-12.2813
▁vaudeville	-12.2813
▁vegetable	-12.2813
▁bathtub	-12.2813
▁jefferson	-12.2813
▁loony	-12.2813
▁valiant	-12.2813
▁whirl	-12.2813
▁geisha	-12.2813
▁improvisation	-12.2813
▁ventura	-12.2813
▁erik	-12.2813
▁flounder	-12.2813
▁zhang	-12.2813
▁gently	-12.2813
▁cockney	-12.2813
▁mockery	-12.2813
▁baddie	-12.2813
▁firefighter	-12.2814
▁grease	-12.2814
▁steward	-12.2814
▁robbing	-12.2814
▁promoting	-12.2814
▁dismay	-12.2814
▁solomon	-12.2814
▁shaft	-12.2814
▁fiery	-12.2815
▁kidnapper	-12.2815
▁dripping	-12.2815
▁freddie	-12.2815
▁summon	-12.2816
▁dirk	-12.2816
▁rotting	-12.2816
▁pulse	-12.2816
▁gosling	-12.2817
▁gunshot	-12.2817
▁farewell	-12.2817
▁decoration	-12.2817
▁stoop	-12.2818
▁standpoint	-12.2818
▁protective	-12.2819
▁echoes	-12.282
▁tragically	-12.2822
▁lemon	-12.2822
▁honorable	-12.2823
▁dung	-12.2824
▁tested	-12.2826
dice	-12.2826
▁grandson	-12.2826
▁caption	-12.2827
▁shoved	-12.2828
▁ballad	-12.2829
▁ridden	-12.2831
▁fold	-12.2835
▁eliminated	-12.2836
▁publisher	-12.2836
▁warped	-12.284
▁succession	-12.2844
******	-12.2849
▁forbid	-12.285
▁250	-12.2853
▁inhabited	-12.2853
64	-12.2859
warming	-12.2866
rise	-12.2868
▁collecting	-12.2878
▁sparkle	-12.288
▁billie	-12.2881
▁lull	-12.2886
▁rae	-12.2892
▁strut	-12.2898
▁jacobi	-12.2898
▁nana	-12.2898
▁vamp	-12.2903
odor	-12.2903
▁orbit	-12.2927
▁numb	-12.293
▁dani	-12.2931
corn	-12.2936
▁bir	-12.2943
▁execute	-12.2944
certain	-12.2948
actress	-12.295
hhhh	-12.295
apocalyptic	-12.2952
citizen	-12.2952
friday	-12.2952
suspense	-12.2952
besides	-12.2952
scott	-12.2953
▁poop	-12.2953
boyfriend	-12.2954
carnosaur	-12.2962
▁accusation	-12.2962
▁appalled	-12.2962
▁atrocities	-12.2962
▁bulgaria	-12.2962
▁concorde	-12.2962
▁conniving	-12.2962
▁eclipse	-12.2962
▁geoffrey	-12.2962
▁histrionic	-12.2962
▁knack	-12.2962
▁oblivion	-12.2962
▁oriental	-12.2962
▁penchant	-12.2962
▁platform	-12.2962
▁sensibilities	-12.2962
▁stalwart	-12.2962
▁uncompromising	-12.2962
▁veronica	-12.2962
▁blazing	-12.2962
▁outburst	-12.2962
▁prolonged	-12.2962
▁pryor	-12.2962
▁alexandre	-12.2962
▁defining	-12.2962
▁honeymoon	-12.2962
▁lukas	-12.2962
▁monotone	-12.2962
▁bergen	-12.2962
▁camilla	-12.2962
▁1947	-12.2962
▁aniston	-12.2962
▁gilmore	-12.2962
▁breakthrough	-12.2963
▁calvin	-12.2963
▁unforgivable	-12.2963
(!)	-12.2964
jason	-12.2964
▁malcolm	-12.2965
▁intruder	-12.2966
▁massey	-12.2966
▁dressler	-12.2966
▁solving	-12.2968
▁bullies	-12.2968
▁gusto	-12.297
▁tenderness	-12.297
▁farscape	-12.2971
▁bigfoot	-12.2975
cade	-12.2976
▁continuously	-12.2977
base	-12.2979
▁indulgent	-12.298
▁reunited	-12.2985
▁exhausted	-12.2987
▁jeep	-12.2989
▁punished	-12.2991
▁laud	-12.2994
plex	-12.2995
▁booze	-12.3001
▁bail	-12.3005
▁flea	-12.3012
▁weirdness	-12.3014
▁widowed	-12.3022
▁minimalist	-12.3057
▁www	-12.3072
▁contend	-12.3079
shin	-12.3083
▁expressing	-12.3085
▁airline	-12.3095
robin	-12.3096
▁della	-12.3097
▁pond	-12.3101
titanic	-12.3103
▁leone	-12.3103
civil	-12.3103
general	-12.3104
everyone	-12.3105
▁thankful	-12.3109
obviously	-12.3109
either	-12.3111
ô	-12.3113
▁1943	-12.3113
▁1951	-12.3113
▁achieving	-12.3113
▁acquit	-12.3113
▁administration	-12.3113
▁aficionado	-12.3113
▁agatha	-12.3113
▁babysitter	-12.3113
▁baffling	-12.3113
▁capshaw	-12.3113
▁catastrophe	-12.3113
▁clarence	-12.3113
▁competitor	-12.3113
▁debacle	-12.3113
▁deborah	-12.3113
▁december	-12.3113
▁dolemite	-12.3113
▁mathieu	-12.3113
▁mercifully	-12.3113
▁millennium	-12.3113
▁ravishing	-12.3113
▁renowned	-12.3113
▁smarmy	-12.3113
▁stimulating	-12.3113
▁stumbling	-12.3113
▁supplies	-12.3113
▁tribulation	-12.3113
▁gardner	-12.3113
▁haggard	-12.3113
▁idiocy	-12.3113
▁implement	-12.3113
▁infatuat	-12.3113
▁janitor	-12.3113
▁colony	-12.3113
▁relieved	-12.3113
▁goldsworthy	-12.3113
▁helsing	-12.3113
▁carlyle	-12.3114
▁cotton	-12.3114
▁overseas	-12.3114
▁garcia	-12.3114
▁grammar	-12.3114
▁sniff	-12.3114
▁maclean	-12.3114
▁pawn	-12.3114
▁tornado	-12.3114
▁luther	-12.3115
▁irving	-12.3115
▁chong	-12.3115
▁sixteen	-12.3116
▁raving	-12.3116
▁unlucky	-12.3116
▁occurring	-12.3116
▁armageddon	-12.3116
sense	-12.3116
▁napoleon	-12.3117
▁repetition	-12.3117
▁dependent	-12.3117
boiled	-12.3118
wield	-12.3118
▁litter	-12.312
▁healing	-12.3121
▁reese	-12.3124
▁ripley	-12.3126
nazi	-12.3126
▁canvas	-12.3127
▁downbeat	-12.3128
▁yea	-12.3128
▁lyrical	-12.3131
▁diesel	-12.3133
▁laden	-12.3137
▁crispin	-12.314
▁observer	-12.3141
▁expanded	-12.3142
▁funds	-12.3148
▁contender	-12.3149
28	-12.315
▁cub	-12.3151
achi	-12.3153
▁adored	-12.3153
▁searches	-12.3154
▁riches	-12.3155
▁dime	-12.3156
▁strangest	-12.3157
billy	-12.3158
▁downside	-12.3159
▁atheist	-12.316
▁shiny	-12.3161
▁muted	-12.3164
cula	-12.3166
▁conception	-12.3167
aug	-12.3172
79	-12.3175
▁colourful	-12.3177
call	-12.3177
▁behalf	-12.3181
▁moss	-12.3188
▁raft	-12.3191
vette	-12.3198
▁rust	-12.3205
▁maintaining	-12.3208
iii	-12.3208
▁stalin	-12.3213
▁vig	-12.3226
▁chile	-12.3228
blooded	-12.3234
spirit	-12.3239
,000,000	-12.3246
▁exceed	-12.3249
▁yul	-12.3249
themed	-12.3255
~	-12.3257
between	-12.3257
romantic	-12.3257
dropping	-12.3257
crazy	-12.3258
avoid	-12.3258
brook	-12.3258
johnny	-12.3258
golden	-12.326
saving	-12.3261
blade	-12.3262
ooooooo	-12.3264
▁siege	-12.3265
paper	-12.3266
▁affirm	-12.3267
▁caribbean	-12.3267
▁consistency	-12.3267
▁council	-12.3267
▁crusade	-12.3267
▁distasteful	-12.3267
▁emergency	-12.3267
▁glamour	-12.3267
▁grenade	-12.3267
▁griffin	-12.3267
▁heterosexual	-12.3267
▁infidelity	-12.3267
▁raoul	-12.3267
▁superlative	-12.3267
▁volcano	-12.3267
▁deceive	-12.3267
▁syrup	-12.3267
▁thwart	-12.3267
▁padded	-12.3267
▁finlay	-12.3267
▁rosario	-12.3267
▁loathe	-12.3267
▁imperfect	-12.3268
▁sunrise	-12.3268
▁trunk	-12.3268
▁antoine	-12.3268
▁shaggy	-12.3268
▁rudd	-12.3268
cate	-12.3268
▁brisk	-12.3268
▁denial	-12.3269
▁uninspiring	-12.3269
▁skillfully	-12.3269
▁duties	-12.3269
▁diving	-12.3269
▁jewelry	-12.327
▁rejection	-12.3271
▁grape	-12.3271
▁adultery	-12.3271
▁bsg	-12.3271
▁medal	-12.3272
▁worldwide	-12.3272
▁noticing	-12.3272
▁breathless	-12.3275
▁requirement	-12.3278
▁woefully	-12.3278
▁dublin	-12.328
▁tug	-12.3281
▁recap	-12.3284
▁twee	-12.3285
▁natali	-12.3295
▁rockne	-12.3297
gmar	-12.3298
▁astonishingly	-12.3301
▁'50	-12.3306
▁fleeing	-12.3319
▁arse	-12.332
range	-12.333
bride	-12.3341
▁nic	-12.3342
▁lawn	-12.3345
wich	-12.3346
clean	-12.3349
▁maintained	-12.3349
▁verse	-12.3364
hair	-12.3368
▁pia	-12.3373
▁deservedly	-12.3378
▁organic	-12.3394
speak	-12.3396
animate	-12.3397
▁rue	-12.3406
ood	-12.3407
▁disrespect	-12.3412
freak	-12.3413
wrong	-12.3413
focus	-12.3414
▁dip	-12.3414
▁stylistic	-12.3423
▁1953	-12.3423
[...]
